{
  "version": "1.0",
  "truncation": null,
  "padding": null,
  "added_tokens": [
    {
      "id": 0,
      "content": "+ا",
      "single_word": true,
      "lstrip": false,
      "rstrip": false,
      "normalized": true,
      "special": true
    },
    {
      "id": 1,
      "content": "+ك",
      "single_word": true,
      "lstrip": false,
      "rstrip": false,
      "normalized": true,
      "special": true
    },
    {
      "id": 2,
      "content": "ب+",
      "single_word": true,
      "lstrip": false,
      "rstrip": false,
      "normalized": true,
      "special": true
    },
    {
      "id": 3,
      "content": "+هم",
      "single_word": true,
      "lstrip": false,
      "rstrip": false,
      "normalized": true,
      "special": true
    },
    {
      "id": 4,
      "content": "+ات",
      "single_word": true,
      "lstrip": false,
      "rstrip": false,
      "normalized": true,
      "special": true
    },
    {
      "id": 5,
      "content": "+ي",
      "single_word": true,
      "lstrip": false,
      "rstrip": false,
      "normalized": true,
      "special": true
    },
    {
      "id": 6,
      "content": "ل+",
      "single_word": true,
      "lstrip": false,
      "rstrip": false,
      "normalized": true,
      "special": true
    },
    {
      "id": 7,
      "content": "+هما",
      "single_word": true,
      "lstrip": false,
      "rstrip": false,
      "normalized": true,
      "special": true
    },
    {
      "id": 8,
      "content": "+نا",
      "single_word": true,
      "lstrip": false,
      "rstrip": false,
      "normalized": true,
      "special": true
    },
    {
      "id": 9,
      "content": "+ن",
      "single_word": true,
      "lstrip": false,
      "rstrip": false,
      "normalized": true,
      "special": true
    },
    {
      "id": 10,
      "content": "+ها",
      "single_word": true,
      "lstrip": false,
      "rstrip": false,
      "normalized": true,
      "special": true
    },
    {
      "id": 11,
      "content": "+كما",
      "single_word": true,
      "lstrip": false,
      "rstrip": false,
      "normalized": true,
      "special": true
    },
    {
      "id": 12,
      "content": "+ة",
      "single_word": true,
      "lstrip": false,
      "rstrip": false,
      "normalized": true,
      "special": true
    },
    {
      "id": 13,
      "content": "ف+",
      "single_word": true,
      "lstrip": false,
      "rstrip": false,
      "normalized": true,
      "special": true
    },
    {
      "id": 14,
      "content": "+كم",
      "single_word": true,
      "lstrip": false,
      "rstrip": false,
      "normalized": true,
      "special": true
    },
    {
      "id": 15,
      "content": "+كن",
      "single_word": true,
      "lstrip": false,
      "rstrip": false,
      "normalized": true,
      "special": true
    },
    {
      "id": 16,
      "content": "+ت",
      "single_word": true,
      "lstrip": false,
      "rstrip": false,
      "normalized": true,
      "special": true
    },
    {
      "id": 17,
      "content": "[بريد]",
      "single_word": true,
      "lstrip": false,
      "rstrip": false,
      "normalized": true,
      "special": true
    },
    {
      "id": 18,
      "content": "[مستخدم]",
      "single_word": true,
      "lstrip": false,
      "rstrip": false,
      "normalized": true,
      "special": true
    },
    {
      "id": 19,
      "content": "لل+",
      "single_word": true,
      "lstrip": false,
      "rstrip": false,
      "normalized": true,
      "special": true
    },
    {
      "id": 20,
      "content": "ال+",
      "single_word": true,
      "lstrip": false,
      "rstrip": false,
      "normalized": true,
      "special": true
    },
    {
      "id": 21,
      "content": "[رابط]",
      "single_word": true,
      "lstrip": false,
      "rstrip": false,
      "normalized": true,
      "special": true
    },
    {
      "id": 22,
      "content": "س+",
      "single_word": true,
      "lstrip": false,
      "rstrip": false,
      "normalized": true,
      "special": true
    },
    {
      "id": 23,
      "content": "+ان",
      "single_word": true,
      "lstrip": false,
      "rstrip": false,
      "normalized": true,
      "special": true
    },
    {
      "id": 24,
      "content": "+وا",
      "single_word": true,
      "lstrip": false,
      "rstrip": false,
      "normalized": true,
      "special": true
    },
    {
      "id": 25,
      "content": "+ه",
      "single_word": true,
      "lstrip": false,
      "rstrip": false,
      "normalized": true,
      "special": true
    },
    {
      "id": 26,
      "content": "+ون",
      "single_word": true,
      "lstrip": false,
      "rstrip": false,
      "normalized": true,
      "special": true
    },
    {
      "id": 27,
      "content": "+هن",
      "single_word": true,
      "lstrip": false,
      "rstrip": false,
      "normalized": true,
      "special": true
    },
    {
      "id": 28,
      "content": "+ين",
      "single_word": true,
      "lstrip": false,
      "rstrip": false,
      "normalized": true,
      "special": true
    },
    {
      "id": 29,
      "content": "و+",
      "single_word": true,
      "lstrip": false,
      "rstrip": false,
      "normalized": true,
      "special": true
    },
    {
      "id": 30,
      "content": "ك+",
      "single_word": true,
      "lstrip": false,
      "rstrip": false,
      "normalized": true,
      "special": true
    },
    {
      "id": 31,
      "content": "[PAD]",
      "single_word": false,
      "lstrip": false,
      "rstrip": false,
      "normalized": false,
      "special": true
    },
    {
      "id": 32,
      "content": "[UNK]",
      "single_word": false,
      "lstrip": false,
      "rstrip": false,
      "normalized": false,
      "special": true
    },
    {
      "id": 33,
      "content": "[CLS]",
      "single_word": false,
      "lstrip": false,
      "rstrip": false,
      "normalized": false,
      "special": true
    },
    {
      "id": 34,
      "content": "[SEP]",
      "single_word": false,
      "lstrip": false,
      "rstrip": false,
      "normalized": false,
      "special": true
    },
    {
      "id": 35,
      "content": "[MASK]",
      "single_word": false,
      "lstrip": false,
      "rstrip": false,
      "normalized": false,
      "special": true
    }
  ],
  "normalizer": {
    "type": "BertNormalizer",
    "clean_text": true,
    "handle_chinese_chars": true,
    "strip_accents": null,
    "lowercase": false
  },
  "pre_tokenizer": {
    "type": "BertPreTokenizer"
  },
  "post_processor": {
    "type": "TemplateProcessing",
    "single": [
      {
        "SpecialToken": {
          "id": "[CLS]",
          "type_id": 0
        }
      },
      {
        "Sequence": {
          "id": "A",
          "type_id": 0
        }
      },
      {
        "SpecialToken": {
          "id": "[SEP]",
          "type_id": 0
        }
      }
    ],
    "pair": [
      {
        "SpecialToken": {
          "id": "[CLS]",
          "type_id": 0
        }
      },
      {
        "Sequence": {
          "id": "A",
          "type_id": 0
        }
      },
      {
        "SpecialToken": {
          "id": "[SEP]",
          "type_id": 0
        }
      },
      {
        "Sequence": {
          "id": "B",
          "type_id": 1
        }
      },
      {
        "SpecialToken": {
          "id": "[SEP]",
          "type_id": 1
        }
      }
    ],
    "special_tokens": {
      "[CLS]": {
        "id": "[CLS]",
        "ids": [
          33
        ],
        "tokens": [
          "[CLS]"
        ]
      },
      "[SEP]": {
        "id": "[SEP]",
        "ids": [
          34
        ],
        "tokens": [
          "[SEP]"
        ]
      }
    }
  },
  "decoder": {
    "type": "WordPiece",
    "prefix": "##",
    "cleanup": true
  },
  "model": {
    "type": "WordPiece",
    "unk_token": "[UNK]",
    "continuing_subword_prefix": "##",
    "max_input_chars_per_word": 100,
    "vocab": {
      "+ا": 0,
      "+ك": 1,
      "ب+": 2,
      "+هم": 3,
      "+ات": 4,
      "+ي": 5,
      "ل+": 6,
      "+هما": 7,
      "+نا": 8,
      "+ن": 9,
      "+ها": 10,
      "+كما": 11,
      "+ة": 12,
      "ف+": 13,
      "+كم": 14,
      "+كن": 15,
      "+ت": 16,
      "[بريد]": 17,
      "[مستخدم]": 18,
      "لل+": 19,
      "ال+": 20,
      "[رابط]": 21,
      "س+": 22,
      "+ان": 23,
      "+وا": 24,
      "+ه": 25,
      "+ون": 26,
      "+هن": 27,
      "+ين": 28,
      "و+": 29,
      "ك+": 30,
      "[PAD]": 31,
      "[UNK]": 32,
      "[CLS]": 33,
      "[SEP]": 34,
      "[MASK]": 35,
      "!": 36,
      "\"": 37,
      "#": 38,
      "'": 39,
      ",": 40,
      "-": 41,
      ".": 42,
      "0": 43,
      "1": 44,
      "2": 45,
      "3": 46,
      "4": 47,
      "5": 48,
      "6": 49,
      "8": 50,
      "9": 51,
      ":": 52,
      "A": 53,
      "B": 54,
      "C": 55,
      "D": 56,
      "F": 57,
      "G": 58,
      "H": 59,
      "I": 60,
      "J": 61,
      "K": 62,
      "L": 63,
      "M": 64,
      "O": 65,
      "P": 66,
      "R": 67,
      "T": 68,
      "V": 69,
      "W": 70,
      "X": 71,
      "Z": 72,
      "[": 73,
      "]": 74,
      "a": 75,
      "b": 76,
      "d": 77,
      "e": 78,
      "g": 79,
      "h": 80,
      "i": 81,
      "j": 82,
      "k": 83,
      "l": 84,
      "m": 85,
      "n": 86,
      "o": 87,
      "p": 88,
      "r": 89,
      "s": 90,
      "u": 91,
      "w": 92,
      "x": 93,
      "y": 94,
      "،": 95,
      "؛": 96,
      "؟": 97,
      "ء": 98,
      "آ": 99,
      "أ": 100,
      "ؤ": 101,
      "إ": 102,
      "ئ": 103,
      "ا": 104,
      "ب": 105,
      "ة": 106,
      "ت": 107,
      "ث": 108,
      "ج": 109,
      "ح": 110,
      "خ": 111,
      "د": 112,
      "ذ": 113,
      "ر": 114,
      "ز": 115,
      "س": 116,
      "ش": 117,
      "ص": 118,
      "ض": 119,
      "ط": 120,
      "ظ": 121,
      "ع": 122,
      "غ": 123,
      "ف": 124,
      "ق": 125,
      "ك": 126,
      "ل": 127,
      "م": 128,
      "ن": 129,
      "ه": 130,
      "و": 131,
      "ى": 132,
      "ي": 133,
      "ً": 134,
      "ٌ": 135,
      "ٍ": 136,
      "َ": 137,
      "ُ": 138,
      "ِ": 139,
      "ّ": 140,
      "ﻷ": 141,
      "##و": 142,
      "##ج": 143,
      "##ي": 144,
      "##ن": 145,
      "##ا": 146,
      "##س": 147,
      "##ع": 148,
      "##ر": 149,
      "##ت": 150,
      "##د": 151,
      "##ً": 152,
      "##ه": 153,
      "##ض": 154,
      "##م": 155,
      "##ل": 156,
      "##أ": 157,
      "##ح": 158,
      "##خ": 159,
      "##ط": 160,
      "##ة": 161,
      "##ص": 162,
      "##ب": 163,
      "##ئ": 164,
      "##ق": 165,
      "##ء": 166,
      "##ث": 167,
      "##ى": 168,
      "##إ": 169,
      "##ظ": 170,
      "##ز": 171,
      "##ك": 172,
      "##ش": 173,
      "##ف": 174,
      "##غ": 175,
      "##ّ": 176,
      "##ذ": 177,
      "##ؤ": 178,
      "##آ": 179,
      "##ُ": 180,
      "##ِ": 181,
      "##َ": 182,
      "##I": 183,
      "##G": 184,
      "##O": 185,
      "##L": 186,
      "##1": 187,
      "##ﻷ": 188,
      "##3": 189,
      "##T": 190,
      "##V": 191,
      "##m": 192,
      "##x": 193,
      "##o": 194,
      "##l": 195,
      "##e": 196,
      "##r": 197,
      "##b": 198,
      "##a": 199,
      "##d": 200,
      "##s": 201,
      "##0": 202,
      "##M": 203,
      "##X": 204,
      "##h": 205,
      "##ٍ": 206,
      "##2": 207,
      "##5": 208,
      "##ٌ": 209,
      "##9": 210,
      "##u": 211,
      "##g": 212,
      "##W": 213,
      "##w": 214,
      "##k": 215,
      "##i": 216,
      "##y": 217,
      "##n": 218,
      "##J": 219,
      "##8": 220,
      "##C": 221,
      "##H": 222,
      "##p": 223,
      "ال": 224,
      "في": 225,
      "##لى": 226,
      "على": 227,
      "##ان": 228,
      "##جل": 229,
      "##بي": 230,
      "##اء": 231,
      "##رة": 232,
      "##ال": 233,
      "من": 234,
      "##لب": 235,
      "ير": 236,
      "##دي": 237,
      "##ار": 238,
      "كلب": 239,
      "رجل": 240,
      "الم": 241,
      "##مر": 242,
      "##قف": 243,
      "##ون": 244,
      "##ين": 245,
      "##عب": 246,
      "##لا": 247,
      "##ير": 248,
      "يقف": 249,
      "##ما": 250,
      "##ية": 251,
      "مع": 252,
      "##ات": 253,
      "الأ": 254,
      "##تدي": 255,
      "##را": 256,
      "##ود": 257,
      "صغ": 258,
      "##لعب": 259,
      "##لج": 260,
      "الك": 261,
      "##فل": 262,
      "##عة": 263,
      "##اة": 264,
      "##مرأ": 265,
      "يرتدي": 266,
      "يرك": 267,
      "فت": 268,
      "##مرأة": 269,
      "##سود": 270,
      "##بيض": 271,
      "صبي": 272,
      "##ول": 273,
      "الش": 274,
      "##رب": 275,
      "بال": 276,
      "يت": 277,
      "##نا": 278,
      "##لق": 279,
      "##مل": 280,
      "##مي": 281,
      "##ري": 282,
      "يلعب": 283,
      "##رق": 284,
      "صغير": 285,
      "يقفز": 286,
      "فتاة": 287,
      "##اب": 288,
      "امرأة": 289,
      "طفل": 290,
      "##راج": 291,
      "##لاب": 292,
      "كرة": 293,
      "الع": 294,
      "##ني": 295,
      "##خص": 296,
      "##جلس": 297,
      "##ًا": 298,
      "يح": 299,
      "##مو": 300,
      "الماء": 301,
      "الس": 302,
      "يس": 303,
      "شخص": 304,
      "##ثن": 305,
      "##وق": 306,
      "##هو": 307,
      "أبيض": 308,
      "الر": 309,
      "##حد": 310,
      "##يرة": 311,
      "##لة": 312,
      "يركض": 313,
      "##ميص": 314,
      "##زلج": 315,
      "الص": 316,
      "##يا": 317,
      "##مام": 318,
      "##ها": 319,
      "الب": 320,
      "##ائ": 321,
      "أسود": 322,
      "الت": 323,
      "يجلس": 324,
      "النا": 325,
      "تر": 326,
      "##اط": 327,
      "بين": 328,
      "##شب": 329,
      "الط": 330,
      "قميص": 331,
      "الناس": 332,
      "##خر": 333,
      "##راجة": 334,
      "إلى": 335,
      "مج": 336,
      "اثن": 337,
      "الث": 338,
      "بينما": 339,
      "الق": 340,
      "العشب": 341,
      "##عض": 342,
      "##وح": 343,
      "##ور": 344,
      "يحمل": 345,
      "##طف": 346,
      "الهو": 347,
      "##موعة": 348,
      "اثنين": 349,
      "أمام": 350,
      "مجموعة": 351,
      "ين": 352,
      "##لاث": 353,
      "##بر": 354,
      "الخ": 355,
      "##لون": 356,
      "##حمر": 357,
      "كبي": 358,
      "##تس": 359,
      "##با": 360,
      "##فر": 361,
      "بني": 362,
      "##دم": 363,
      "الثلج": 364,
      "يم": 365,
      "فوق": 366,
      "ثلاث": 367,
      "صغيرة": 368,
      "يق": 369,
      "##وم": 370,
      "يركب": 371,
      "##قة": 372,
      "##ظر": 373,
      "الهواء": 374,
      "##رج": 375,
      "عبر": 376,
      "##زرق": 377,
      "##اطئ": 378,
      "وال": 379,
      "##عد": 380,
      "##ارع": 381,
      "حق": 382,
      "الج": 383,
      "الح": 384,
      "##اف": 385,
      "##يد": 386,
      "بج": 387,
      "وا": 388,
      "##ام": 389,
      "دراجة": 390,
      "بر": 391,
      "##لف": 392,
      "##كة": 393,
      "الد": 394,
      "الكلاب": 395,
      "ترتدي": 396,
      "##انب": 397,
      "##بل": 398,
      "##طفال": 399,
      "ثلاثة": 400,
      "تح": 401,
      "الشاطئ": 402,
      "##ضر": 403,
      "لا": 404,
      "وأ": 405,
      "##تق": 406,
      "الف": 407,
      "##وب": 408,
      "الكلب": 409,
      "تقف": 410,
      "##قرب": 411,
      "لعب": 412,
      "##وج": 413,
      "الن": 414,
      "##شي": 415,
      "##مس": 416,
      "حقل": 417,
      "##اج": 418,
      "بعض": 419,
      "بالقرب": 420,
      "مت": 421,
      "##هر": 422,
      "##مراء": 423,
      "##مه": 424,
      "لعبة": 425,
      "##يل": 426,
      "حمراء": 427,
      "##ريق": 428,
      "##ارج": 429,
      "يقوم": 430,
      "يسير": 431,
      "وي": 432,
      "بجانب": 433,
      "ست": 434,
      "##حة": 435,
      "مس": 436,
      "##كب": 437,
      "فمه": 438,
      "##ورة": 439,
      "آخر": 440,
      "لل": 441,
      "##مة": 442,
      "لوح": 443,
      "##بعة": 444,
      "كبير": 445,
      "##لال": 446,
      "##بتس": 447,
      "##اص": 448,
      "ور": 449,
      "##يف": 450,
      "##اه": 451,
      "ينظر": 452,
      "أحمر": 453,
      "أس": 454,
      "##شبي": 455,
      "القدم": 456,
      "لاعب": 457,
      "سترة": 458,
      "مق": 459,
      "تس": 460,
      "##هم": 461,
      "أش": 462,
      "صخ": 463,
      "##نة": 464,
      "##ابة": 465,
      "أزرق": 466,
      "##هما": 467,
      "##لابس": 468,
      "##سي": 469,
      "سيا": 470,
      "يلعبون": 471,
      "بي": 472,
      "##بتسم": 473,
      "يتس": 474,
      "##تقال": 475,
      "##اول": 476,
      "##رض": 477,
      "##يرا": 478,
      "تلعب": 479,
      "زرق": 480,
      "##ارات": 481,
      "زرقاء": 482,
      "##قب": 483,
      "##لي": 484,
      "المت": 485,
      "يش": 486,
      "##رو": 487,
      "يط": 488,
      "##تان": 489,
      "##خضر": 490,
      "##اميرا": 491,
      "كبيرة": 492,
      "قبعة": 493,
      "##صفر": 494,
      "##بن": 495,
      "الز": 496,
      "##ارية": 497,
      "يمشي": 498,
      "##خاص": 499,
      "الكرة": 500,
      "بركة": 501,
      "##جال": 502,
      "##يط": 503,
      "##دون": 504,
      "الغ": 505,
      "الشارع": 506,
      "اللون": 507,
      "وأسود": 508,
      "را": 509,
      "ملابس": 510,
      "المح": 511,
      "الرجل": 512,
      "##بح": 513,
      "##وان": 514,
      "السبا": 515,
      "##عر": 516,
      "##شد": 517,
      "يلعبان": 518,
      "أطفال": 519,
      "تن": 520,
      "كلاب": 521,
      "##ضاء": 522,
      "##فع": 523,
      "الصغ": 524,
      "يتسلق": 525,
      "##ديقة": 526,
      "##دة": 527,
      "الخلف": 528,
      "خلال": 529,
      "سود": 530,
      "##ته": 531,
      "سوداء": 532,
      "جد": 533,
      "##حدر": 534,
      "##بنى": 535,
      "يست": 536,
      "أشخاص": 537,
      "##مواج": 538,
      "يد": 539,
      "##اً": 540,
      "##صيف": 541,
      "كلبان": 542,
      "رجلان": 543,
      "التزلج": 544,
      "تجلس": 545,
      "##أس": 546,
      "سبا": 547,
      "شخصان": 548,
      "بيضاء": 549,
      "##تاة": 550,
      "ذو": 551,
      "##صا": 552,
      "تحمل": 553,
      "تت": 554,
      "سيارة": 555,
      "أحد": 556,
      "خارج": 557,
      "أرب": 558,
      "##رف": 559,
      "الأطفال": 560,
      "##ائر": 561,
      "برتقال": 562,
      "وامرأة": 563,
      "##طة": 564,
      "##ذة": 565,
      "صورة": 566,
      "أسفل": 567,
      "##مال": 568,
      "##قر": 569,
      "عن": 570,
      "##فراء": 571,
      "بح": 572,
      "المحيط": 573,
      "دراج": 574,
      "والأ": 575,
      "واحد": 576,
      "مبنى": 577,
      "حشد": 578,
      "##بول": 579,
      "##جرة": 580,
      "##ارب": 581,
      "فتات": 582,
      "يج": 583,
      "##كل": 584,
      "##دية": 585,
      "راكب": 586,
      "##سك": 587,
      "##غط": 588,
      "##ست": 589,
      "يرت": 590,
      "البني": 591,
      "يمر": 592,
      "منحدر": 593,
      "##رابي": 594,
      "الصخ": 595,
      "حول": 596,
      "ثلج": 597,
      "عشبي": 598,
      "وج": 599,
      "يص": 600,
      "##وي": 601,
      "الدراجة": 602,
      "خلف": 603,
      "##وا": 604,
      "بع": 605,
      "##ولا": 606,
      "##زلق": 607,
      "البعض": 608,
      "##ويل": 609,
      "##كلب": 610,
      "شاب": 611,
      "قدم": 612,
      "##ضراء": 613,
      "##ياه": 614,
      "أربعة": 615,
      "##كي": 616,
      "الكاميرا": 617,
      "##بة": 618,
      "يتزلج": 619,
      "السباحة": 620,
      "##صان": 621,
      "مقعد": 622,
      "صخرة": 623,
      "يرتدون": 624,
      "أصفر": 625,
      "طفلان": 626,
      "##يات": 627,
      "##دعة": 628,
      "الجل": 629,
      "رأس": 630,
      "الأمواج": 631,
      "##بال": 632,
      "##ابق": 633,
      "##ثناء": 634,
      "الرمال": 635,
      "الصخور": 636,
      "أثناء": 637,
      "طول": 638,
      "جدار": 639,
      "##نس": 640,
      "##ظارات": 641,
      "الأرض": 642,
      "فتاتان": 643,
      "الذ": 644,
      "تحت": 645,
      "تم": 646,
      "##اخ": 647,
      "##ارد": 648,
      "طريق": 649,
      "وت": 650,
      "##سر": 651,
      "الأحمر": 652,
      "يقفون": 653,
      "الخلفية": 654,
      "زي": 655,
      "البي": 656,
      "##دينة": 657,
      "##ولاد": 658,
      "يقفان": 659,
      "الخارج": 660,
      "##قفز": 661,
      "شعر": 662,
      "##بيضاء": 663,
      "##وحة": 664,
      "جبل": 665,
      "شجرة": 666,
      "مح": 667,
      "وش": 668,
      "صفراء": 669,
      "يع": 670,
      "##وذة": 671,
      "الجليد": 672,
      "يمسك": 673,
      "وق": 674,
      "يأ": 675,
      "##ساء": 676,
      "الأبيض": 677,
      "تزلج": 678,
      "يبتسم": 679,
      "##اد": 680,
      "##فس": 681,
      "الطفل": 682,
      "يشاه": 683,
      "سباق": 684,
      "نح": 685,
      "وكلب": 686,
      "السلة": 687,
      "##ضح": 688,
      "##كض": 689,
      "منط": 690,
      "المر": 691,
      "باللون": 692,
      "مش": 693,
      "##اح": 694,
      "يجلسان": 695,
      "الغابة": 696,
      "أرج": 697,
      "الأسود": 698,
      "يجلسون": 699,
      "حديقة": 700,
      "##سبول": 701,
      "##ناك": 702,
      "أن": 703,
      "ذات": 704,
      "##ديد": 705,
      "##راع": 706,
      "خضراء": 707,
      "يسبح": 708,
      "منطقة": 709,
      "مر": 710,
      "##خذ": 711,
      "##وار": 712,
      "الآ": 713,
      "التنس": 714,
      "المتزلج": 715,
      "أخضر": 716,
      "يحاول": 717,
      "##حدث": 718,
      "يرتديان": 719,
      "الرجال": 720,
      "بخ": 721,
      "عصا": 722,
      "مسار": 723,
      "الزي": 724,
      "امرأ": 725,
      "ترابي": 726,
      "##ضرب": 727,
      "##مع": 728,
      "نارية": 729,
      "##ضع": 730,
      "##زل": 731,
      "المياه": 732,
      "##ائية": 733,
      "متزلج": 734,
      "تلة": 735,
      "شي": 736,
      "هو": 737,
      "هناك": 738,
      "##افة": 739,
      "رجال": 740,
      "ما": 741,
      "##ناء": 742,
      "##سم": 743,
      "##لم": 744,
      "تقفز": 745,
      "صخري": 746,
      "نحو": 747,
      "يطارد": 748,
      "تق": 749,
      "موج": 750,
      "##لع": 751,
      "دراجته": 752,
      "تركض": 753,
      "##يت": 754,
      "##نية": 755,
      "##ارة": 756,
      "##زح": 757,
      "ثوب": 758,
      "وردي": 759,
      "##اولة": 760,
      "متس": 761,
      "الرصيف": 762,
      "الصبي": 763,
      "قميصًا": 764,
      "امرأتان": 765,
      "خشبي": 766,
      "##وس": 767,
      "ظهر": 768,
      "##رجح": 769,
      "شارع": 770,
      "##عبي": 771,
      "##سوداء": 772,
      "##اقب": 773,
      "خوذة": 774,
      "رما": 775,
      "الطائر": 776,
      "قميصا": 777,
      "الأزرق": 778,
      "بجوار": 779,
      "بلا": 780,
      "##جار": 781,
      "يراقب": 782,
      "الأخضر": 783,
      "العديد": 784,
      "الطريق": 785,
      "مغط": 786,
      "##يه": 787,
      "##دح": 788,
      "برتقالية": 789,
      "وجه": 790,
      "الصح": 791,
      "البر": 792,
      "وف": 793,
      "قارب": 794,
      "مز": 795,
      "ناف": 796,
      "##عات": 797,
      "##أرجح": 798,
      "##بض": 799,
      "الدراج": 800,
      "موجة": 801,
      "مو": 802,
      "وس": 803,
      "البيسبول": 804,
      "الفتاة": 805,
      "تسير": 806,
      "للق": 807,
      "يشاهد": 808,
      "ملعب": 809,
      "الملعب": 810,
      "##مسية": 811,
      "##اق": 812,
      "المدينة": 813,
      "الصغير": 814,
      "ثلجي": 815,
      "بأ": 816,
      "##يبة": 817,
      "##ربة": 818,
      "##لونة": 819,
      "##روال": 820,
      "يتم": 821,
      "الطلق": 822,
      "##يدة": 823,
      "بحيرة": 824,
      "زوج": 825,
      "بعضهما": 826,
      "معا": 827,
      "ينزلق": 828,
      "الذي": 829,
      "وب": 830,
      "الدراجات": 831,
      "للقبض": 832,
      "##وف": 833,
      "##وية": 834,
      "##كوب": 835,
      "تمشي": 836,
      "بخدعة": 837,
      "##هور": 838,
      "##زرقاء": 839,
      "حي": 840,
      "السوداء": 841,
      "معطف": 842,
      "أسمر": 843,
      "##اخل": 844,
      "تج": 845,
      "##اك": 846,
      "تتس": 847,
      "##ديه": 848,
      "الحديقة": 849,
      "لاعبي": 850,
      "##بان": 851,
      "الأش": 852,
      "##طار": 853,
      "رصيف": 854,
      "المن": 855,
      "يركضان": 856,
      "الفت": 857,
      "ذراع": 858,
      "طاولة": 859,
      "كر": 860,
      "##جر": 861,
      "##يك": 862,
      "الجبال": 863,
      "وأبيض": 864,
      "##زحلق": 865,
      "بد": 866,
      "الشخص": 867,
      "##حمراء": 868,
      "الل": 869,
      "الجبل": 870,
      "الآخر": 871,
      "بم": 872,
      "##قط": 873,
      "عقب": 874,
      "الأولاد": 875,
      "مك": 876,
      "##حب": 877,
      "##بار": 878,
      "##خرى": 879,
      "مخ": 880,
      "البيضاء": 881,
      "يرق": 882,
      "رمادي": 883,
      "##كرة": 884,
      "قمة": 885,
      "شاطئ": 886,
      "##ضي": 887,
      "الأرج": 888,
      "النارية": 889,
      "يستعد": 890,
      "وفتاة": 891,
      "حافة": 892,
      "الصحن": 893,
      "##دف": 894,
      "##ارس": 895,
      "##ينز": 896,
      "##ضحك": 897,
      "به": 898,
      "##ورا": 899,
      "##ماء": 900,
      "بالث": 901,
      "عال": 902,
      "معد": 903,
      "##ائرة": 904,
      "النهر": 905,
      "عربة": 906,
      "نظارات": 907,
      "##ورق": 908,
      "##أة": 909,
      "حقيبة": 910,
      "##رفة": 911,
      "شابة": 912,
      "مص": 913,
      "وهو": 914,
      "الور": 915,
      "##لقي": 916,
      "ركوب": 917,
      "##اعد": 918,
      "##فت": 919,
      "صبيان": 920,
      "##راب": 921,
      "قف": 922,
      "##وز": 923,
      "الجو": 924,
      "يجري": 925,
      "تل": 926,
      "وراء": 927,
      "واحدة": 928,
      "يأخذ": 929,
      "تع": 930,
      "طائر": 931,
      "طويل": 932,
      "سياج": 933,
      "شيء": 934,
      "##يتار": 935,
      "وبني": 936,
      "جانب": 937,
      "##زف": 938,
      "المرأة": 939,
      "##جاج": 940,
      "##حر": 941,
      "المس": 942,
      "يسيران": 943,
      "شمسية": 944,
      "مط": 945,
      "##لوج": 946,
      "##طفل": 947,
      "الزرقاء": 948,
      "##ائق": 949,
      "الفتيات": 950,
      "##لان": 951,
      "##زه": 952,
      "طفلة": 953,
      "الصغار": 954,
      "أرجوحة": 955,
      "أخرى": 956,
      "مظ": 957,
      "##وت": 958,
      "يتج": 959,
      "الفناء": 960,
      "يسيرون": 961,
      "عند": 962,
      "زوجان": 963,
      "سروال": 964,
      "أص": 965,
      "داخل": 966,
      "##روب": 967,
      "##فق": 968,
      "والأبيض": 969,
      "##نت": 970,
      "تركب": 971,
      "برتقالي": 972,
      "يل": 973,
      "##ند": 974,
      "الشمس": 975,
      "نافورة": 976,
      "##وراق": 977,
      "بش": 978,
      "طوق": 979,
      "نساء": 980,
      "النساء": 981,
      "تبتسم": 982,
      "سيدة": 983,
      "كت": 984,
      "لديه": 985,
      "الي": 986,
      "الا": 987,
      "تنظر": 988,
      "بق": 989,
      "##عم": 990,
      "الحمراء": 991,
      "كلبًا": 992,
      "يتحدث": 993,
      "##واني": 994,
      "رأسه": 995,
      "ريا": 996,
      "##نف": 997,
      "##ميل": 998,
      "وح": 999,
      "يقود": 1000,
      "##مسك": 1001,
      "السباق": 1002,
      "تد": 1003,
      "حبل": 1004,
      "##وارع": 1005,
      "##صول": 1006,
      "##اتف": 1007,
      "البرتقال": 1008,
      "يه": 1009,
      "##احة": 1010,
      "##رير": 1011,
      "##تظر": 1012,
      "##لوان": 1013,
      "##قا": 1014,
      "##ثير": 1015,
      "##لات": 1016,
      "##خرج": 1017,
      "يركبون": 1018,
      "##قراء": 1019,
      "عشبية": 1020,
      "مغطى": 1021,
      "كرسي": 1022,
      "سي": 1023,
      "قط": 1024,
      "##جة": 1025,
      "##ضية": 1026,
      "##لامة": 1027,
      "##راه": 1028,
      "الشعر": 1029,
      "##تقط": 1030,
      "سباحة": 1031,
      "وقبعة": 1032,
      "تط": 1033,
      "خمس": 1034,
      "خدعة": 1035,
      "##هي": 1036,
      "##افت": 1037,
      "يصط": 1038,
      "##دو": 1039,
      "يطير": 1040,
      "هوائية": 1041,
      "الأشجار": 1042,
      "أولاد": 1043,
      "تش": 1044,
      "ملونة": 1045,
      "جرف": 1046,
      "حمام": 1047,
      "لافت": 1048,
      "الكبي": 1049,
      "يتأرجح": 1050,
      "طفلين": 1051,
      "ثلجية": 1052,
      "مزدح": 1053,
      "حصان": 1054,
      "علي": 1055,
      "الإ": 1056,
      "ورجل": 1057,
      "كل": 1058,
      "نظ": 1059,
      "##كت": 1060,
      "##لقة": 1061,
      "الهوكي": 1062,
      "بنية": 1063,
      "لر": 1064,
      "##وض": 1065,
      "##قية": 1066,
      "##ظهر": 1067,
      "##ريس": 1068,
      "##ابات": 1069,
      "بعمل": 1070,
      "##لعاب": 1071,
      "متسابق": 1072,
      "آسي": 1073,
      "درب": 1074,
      "سائق": 1075,
      "يب": 1076,
      "##بع": 1077,
      "الصغيرة": 1078,
      "شقراء": 1079,
      "##رات": 1080,
      "اله": 1081,
      "##بين": 1082,
      "المط": 1083,
      "الأصفر": 1084,
      "السيا": 1085,
      "بعصا": 1086,
      "يرقص": 1087,
      "تص": 1088,
      "وطفل": 1089,
      "##سة": 1090,
      "##تد": 1091,
      "##تين": 1092,
      "فتيات": 1093,
      "##اجز": 1094,
      "عقبة": 1095,
      "أع": 1096,
      "المتزلجين": 1097,
      "حج": 1098,
      "بالغ": 1099,
      "قفز": 1100,
      "بذ": 1101,
      "فريق": 1102,
      "##لام": 1103,
      "يتق": 1104,
      "الدرج": 1105,
      "بط": 1106,
      "لي": 1107,
      "يغ": 1108,
      "##وارب": 1109,
      "##ئة": 1110,
      "##لبة": 1111,
      "الترابي": 1112,
      "يصطاد": 1113,
      "##تص": 1114,
      "##حمل": 1115,
      "التي": 1116,
      "وردية": 1117,
      "يوم": 1118,
      "##نع": 1119,
      "##مصان": 1120,
      "##الة": 1121,
      "يرش": 1122,
      "بالأ": 1123,
      "##ريكة": 1124,
      "وقميص": 1125,
      "ترابية": 1126,
      "الوردي": 1127,
      "أمواج": 1128,
      "علامة": 1129,
      "##ادة": 1130,
      "##مان": 1131,
      "##صارع": 1132,
      "الري": 1133,
      "##ينة": 1134,
      "##نام": 1135,
      "أشقر": 1136,
      "##ويلة": 1137,
      "الأرجوحة": 1138,
      "بالثلوج": 1139,
      "عدة": 1140,
      "ماء": 1141,
      "##سان": 1142,
      "##كاميرا": 1143,
      "##راويل": 1144,
      "##فلة": 1145,
      "يرتدين": 1146,
      "##فعل": 1147,
      "خمسة": 1148,
      "ساحة": 1149,
      "##وع": 1150,
      "##لو": 1151,
      "##أخذ": 1152,
      "##صبي": 1153,
      "وسط": 1154,
      "بدلة": 1155,
      "بن": 1156,
      "زح": 1157,
      "فس": 1158,
      "##يدي": 1159,
      "##نب": 1160,
      "##نان": 1161,
      "##تع": 1162,
      "##تها": 1163,
      "##نافس": 1164,
      "شيئ": 1165,
      "تتسلق": 1166,
      "##يكية": 1167,
      "نظارة": 1168,
      "أك": 1169,
      "مفت": 1170,
      "##راء": 1171,
      "##دق": 1172,
      "##لوق": 1173,
      "فتى": 1174,
      "##وحل": 1175,
      "متسلق": 1176,
      "الليل": 1177,
      "مزدحم": 1178,
      "الترابية": 1179,
      "زورق": 1180,
      "غرفة": 1181,
      "##داء": 1182,
      "##شون": 1183,
      "تسلق": 1184,
      "الغيتار": 1185,
      "يأكل": 1186,
      "مغطاة": 1187,
      "##باراة": 1188,
      "داك": 1189,
      "قبل": 1190,
      "##عام": 1191,
      "##مول": 1192,
      "يرمي": 1193,
      "المش": 1194,
      "##ولد": 1195,
      "##ريب": 1196,
      "##تقاط": 1197,
      "وشك": 1198,
      "جسر": 1199,
      "جسم": 1200,
      "زجاج": 1201,
      "طويلة": 1202,
      "كاميرا": 1203,
      "يخرج": 1204,
      "يفعل": 1205,
      "##نظارات": 1206,
      "##طي": 1207,
      "##قل": 1208,
      "##زي": 1209,
      "##كبي": 1210,
      "منزل": 1211,
      "المسر": 1212,
      "يسقط": 1213,
      "لافتة": 1214,
      "حجري": 1215,
      "المسرح": 1216,
      "قص": 1217,
      "وبيضاء": 1218,
      "يعض": 1219,
      "##اع": 1220,
      "##من": 1221,
      "المد": 1222,
      "##رقص": 1223,
      "الصفراء": 1224,
      "ينظران": 1225,
      "دراجات": 1226,
      "البرتقالي": 1227,
      "سلة": 1228,
      "طائرة": 1229,
      "##وط": 1230,
      "##هبي": 1231,
      "##مار": 1232,
      "##شة": 1233,
      "##انق": 1234,
      "##لاً": 1235,
      "يحملون": 1236,
      "يركبان": 1237,
      "الجد": 1238,
      "بعضهم": 1239,
      "يعزف": 1240,
      "مدينة": 1241,
      "وين": 1242,
      "##طح": 1243,
      "##بط": 1244,
      "اللا": 1245,
      "الشوارع": 1246,
      "تست": 1247,
      "##بحث": 1248,
      "زلا": 1249,
      "عرض": 1250,
      "يضع": 1251,
      "يرفع": 1252,
      "##رقة": 1253,
      "التل": 1254,
      "القميص": 1255,
      "يمشون": 1256,
      "متجر": 1257,
      "للح": 1258,
      "##روف": 1259,
      "خلفه": 1260,
      "يتقات": 1261,
      "جال": 1262,
      "خط": 1263,
      "وهي": 1264,
      "##حيرة": 1265,
      "##ؤدي": 1266,
      "##انية": 1267,
      "##رام": 1268,
      "ينتظر": 1269,
      "##ليقة": 1270,
      "يشرب": 1271,
      "تنس": 1272,
      "والأسود": 1273,
      "بلاست": 1274,
      "##حرك": 1275,
      "##يس": 1276,
      "##ظا": 1277,
      "##ورت": 1278,
      "خي": 1279,
      "مد": 1280,
      "مياه": 1281,
      "##جاه": 1282,
      "البحيرة": 1283,
      "الطويل": 1284,
      "الخاص": 1285,
      "متن": 1286,
      "مست": 1287,
      "##وانية": 1288,
      "##بولين": 1289,
      "مكان": 1290,
      "##رامبولين": 1291,
      "وصبي": 1292,
      "##ضة": 1293,
      "القفز": 1294,
      "المراه": 1295,
      "بعضها": 1296,
      "أحدهما": 1297,
      "##ريسبي": 1298,
      "بعد": 1299,
      "حاجز": 1300,
      "شاح": 1301,
      "ملي": 1302,
      "نفس": 1303,
      "##جارة": 1304,
      "##غر": 1305,
      "المو": 1306,
      "الملونة": 1307,
      "الأس": 1308,
      "##ناع": 1309,
      "##ائط": 1310,
      "الزهور": 1311,
      "مطعم": 1312,
      "مظلة": 1313,
      "قطعة": 1314,
      "بذلة": 1315,
      "أف": 1316,
      "ساق": 1317,
      "طف": 1318,
      "##هب": 1319,
      "##صة": 1320,
      "الضح": 1321,
      "##التقاط": 1322,
      "صغيرتان": 1323,
      "##ائي": 1324,
      "##خرية": 1325,
      "الجينز": 1326,
      "مسن": 1327,
      "تتحدث": 1328,
      "محاط": 1329,
      "حيلة": 1330,
      "مخط": 1331,
      "##ظاهر": 1332,
      "بقفز": 1333,
      "رمل": 1334,
      "عائ": 1335,
      "يخ": 1336,
      "##يكي": 1337,
      "##طب": 1338,
      "##جلات": 1339,
      "##عبر": 1340,
      "##مات": 1341,
      "##شبة": 1342,
      "ينف": 1343,
      "##ومة": 1344,
      "ويحمل": 1345,
      "يعمل": 1346,
      "##دحرج": 1347,
      "نافذة": 1348,
      "حا": 1349,
      "ضخ": 1350,
      "عم": 1351,
      "لالتقاط": 1352,
      "وم": 1353,
      "يضرب": 1354,
      "##وقف": 1355,
      "##ركة": 1356,
      "المق": 1357,
      "للكاميرا": 1358,
      "يده": 1359,
      "أربع": 1360,
      "ظهره": 1361,
      "وجهه": 1362,
      "تجمع": 1363,
      "معدات": 1364,
      "آسيوي": 1365,
      "شري": 1366,
      "فقا": 1367,
      "قرب": 1368,
      "##رع": 1369,
      "##باب": 1370,
      "##ثال": 1371,
      "##زين": 1372,
      "##فة": 1373,
      "المع": 1374,
      "الأوراق": 1375,
      "صغيران": 1376,
      "الترامبولين": 1377,
      "الطعام": 1378,
      "اثنان": 1379,
      "##يدان": 1380,
      "النار": 1381,
      "مسنة": 1382,
      "المتزحلق": 1383,
      "تنزلق": 1384,
      "تقوم": 1385,
      "تتسابق": 1386,
      "المسار": 1387,
      "يتجول": 1388,
      "فستان": 1389,
      "مفتوح": 1390,
      "الضحلة": 1391,
      "سطح": 1392,
      "غروب": 1393,
      "مل": 1394,
      "نهر": 1395,
      "هذ": 1396,
      "##جوز": 1397,
      "الملابس": 1398,
      "##ياً": 1399,
      "##فرج": 1400,
      "يدفع": 1401,
      "يشاهدون": 1402,
      "أرجوانية": 1403,
      "الآخرون": 1404,
      "الكبيرة": 1405,
      "للحصول": 1406,
      "أرض": 1407,
      "بس": 1408,
      "عجوز": 1409,
      "مم": 1410,
      "هاتف": 1411,
      "##صل": 1412,
      "يتصارع": 1413,
      "يقفزان": 1414,
      "شخصين": 1415,
      "ترتديان": 1416,
      "ينظرون": 1417,
      "زحليقة": 1418,
      "وينظر": 1419,
      "زلاجة": 1420,
      "مض": 1421,
      "مبتسم": 1422,
      "وع": 1423,
      "ونظارات": 1424,
      "يضحك": 1425,
      "##وش": 1426,
      "##مى": 1427,
      "##خن": 1428,
      "الخضراء": 1429,
      "##امة": 1430,
      "يستلقي": 1431,
      "خشبية": 1432,
      "حيوان": 1433,
      "عالية": 1434,
      "السياج": 1435,
      "##تصف": 1436,
      "بقفزة": 1437,
      "أريكة": 1438,
      "جرو": 1439,
      "خشبة": 1440,
      "قمصان": 1441,
      "وير": 1442,
      "ينام": 1443,
      "##يول": 1444,
      "##فح": 1445,
      "##ذية": 1446,
      "معاً": 1447,
      "##لعبة": 1448,
      "بالقفز": 1449,
      "يحدق": 1450,
      "التق": 1451,
      "يحملان": 1452,
      "يمتد": 1453,
      "##يفة": 1454,
      "تمسك": 1455,
      "جل": 1456,
      "حف": 1457,
      "درج": 1458,
      "فناء": 1459,
      "مبتس": 1460,
      "وخ": 1461,
      "##ياب": 1462,
      "##يها": 1463,
      "##رأ": 1464,
      "##حية": 1465,
      "##قي": 1466,
      "##ذاء": 1467,
      "يتد": 1468,
      "يقفزون": 1469,
      "يسحب": 1470,
      "يركضون": 1471,
      "##ائب": 1472,
      "الفريسبي": 1473,
      "##وجه": 1474,
      "آخرين": 1475,
      "يتسابق": 1476,
      "تتأرجح": 1477,
      "يجدف": 1478,
      "وشاح": 1479,
      "البركة": 1480,
      "المنحدر": 1481,
      "عليه": 1482,
      "إلي": 1483,
      "بات": 1484,
      "بسر": 1485,
      "شلال": 1486,
      "قوارب": 1487,
      "كومة": 1488,
      "##تف": 1489,
      "منتصف": 1490,
      "كلبه": 1491,
      "الأع": 1492,
      "بالماء": 1493,
      "السن": 1494,
      "يمارس": 1495,
      "##اهية": 1496,
      "بعيد": 1497,
      "##وساخ": 1498,
      "شاحنة": 1499,
      "ذهبي": 1500,
      "صند": 1501,
      "صخرية": 1502,
      "هي": 1503,
      "ورق": 1504,
      "##وه": 1505,
      "##وص": 1506,
      "##يب": 1507,
      "##يور": 1508,
      "##دام": 1509,
      "الولد": 1510,
      "##لبس": 1511,
      "##ديها": 1512,
      "##لاك": 1513,
      "يتبع": 1514,
      "السرير": 1515,
      "الرمل": 1516,
      "##اطف": 1517,
      "الطوب": 1518,
      "الحشد": 1519,
      "##لالم": 1520,
      "##سيارات": 1521,
      "المحمول": 1522,
      "تمثال": 1523,
      "كتاب": 1524,
      "سيجارة": 1525,
      "أعلى": 1526,
      "حوض": 1527,
      "غابة": 1528,
      "##جم": 1529,
      "##تب": 1530,
      "##حذية": 1531,
      "##خدم": 1532,
      "##بعات": 1533,
      "##جلة": 1534,
      "##بيع": 1535,
      "صغار": 1536,
      "يركل": 1537,
      "يتدحرج": 1538,
      "البقر": 1539,
      "ينزل": 1540,
      "لوحة": 1541,
      "رأسها": 1542,
      "الأرجواني": 1543,
      "بالثلج": 1544,
      "كلبين": 1545,
      "الريا": 1546,
      "##روفون": 1547,
      "أو": 1548,
      "رش": 1549,
      "سرير": 1550,
      "صالة": 1551,
      "فات": 1552,
      "كثير": 1553,
      "نفق": 1554,
      "##از": 1555,
      "##افر": 1556,
      "##اني": 1557,
      "##يني": 1558,
      "الشمسية": 1559,
      "يحت": 1560,
      "السلوق": 1561,
      "الحبل": 1562,
      "يشير": 1563,
      "فتاتين": 1564,
      "##سترة": 1565,
      "##واس": 1566,
      "أنف": 1567,
      "موقف": 1568,
      "أصغر": 1569,
      "شيئًا": 1570,
      "بسرعة": 1571,
      "صندوق": 1572,
      "جذ": 1573,
      "مباراة": 1574,
      "يؤدي": 1575,
      "##اس": 1576,
      "##هد": 1577,
      "##فاف": 1578,
      "الوحل": 1579,
      "##دين": 1580,
      "بيسبول": 1581,
      "المتفرج": 1582,
      "يصعد": 1583,
      "خلفها": 1584,
      "##وتر": 1585,
      "زجاجة": 1586,
      "يتقاتلان": 1587,
      "الموسي": 1588,
      "بل": 1589,
      "مضرب": 1590,
      "ول": 1591,
      "##رطة": 1592,
      "##متع": 1593,
      "الرما": 1594,
      "الخيول": 1595,
      "يقرأ": 1596,
      "النظارات": 1597,
      "##روس": 1598,
      "جدا": 1599,
      "رياضي": 1600,
      "التقاط": 1601,
      "ترقص": 1602,
      "زاهية": 1603,
      "قناع": 1604,
      "كان": 1605,
      "وسترة": 1606,
      "##نزه": 1607,
      "##لس": 1608,
      "##لاء": 1609,
      "##ظار": 1610,
      "##ارك": 1611,
      "الميدان": 1612,
      "معلقة": 1613,
      "##راسي": 1614,
      "الكا": 1615,
      "البال": 1616,
      "التراب": 1617,
      "القطار": 1618,
      "##لاثة": 1619,
      "بنيان": 1620,
      "##افات": 1621,
      "للأ": 1622,
      "الخلفي": 1623,
      "مخطط": 1624,
      "عائلة": 1625,
      "بواس": 1626,
      "تغ": 1627,
      "حذاء": 1628,
      "رع": 1629,
      "ممر": 1630,
      "ملون": 1631,
      "##تلف": 1632,
      "##راقب": 1633,
      "بالم": 1634,
      "قميصاً": 1635,
      "مقلم": 1636,
      "تلعبان": 1637,
      "يطل": 1638,
      "راكبي": 1639,
      "رأسا": 1640,
      "تجري": 1641,
      "معدني": 1642,
      "قفزة": 1643,
      "الجدار": 1644,
      "بلاستيكية": 1645,
      "خيمة": 1646,
      "يتصارعان": 1647,
      "بواسطة": 1648,
      "أجل": 1649,
      "إطار": 1650,
      "بها": 1651,
      "تمر": 1652,
      "طوف": 1653,
      "قريب": 1654,
      "لكرة": 1655,
      "مائية": 1656,
      "##أكل": 1657,
      "##بخ": 1658,
      "المص": 1659,
      "##مامة": 1660,
      "يمشيان": 1661,
      "##يكروفون": 1662,
      "##اعدة": 1663,
      "يبدو": 1664,
      "مبتسمة": 1665,
      "باتجاه": 1666,
      "فاتح": 1667,
      "رعاة": 1668,
      "است": 1669,
      "تضع": 1670,
      "لص": 1671,
      "لسان": 1672,
      "مه": 1673,
      "وضع": 1674,
      "##وات": 1675,
      "##نه": 1676,
      "##تح": 1677,
      "منصة": 1678,
      "بالح": 1679,
      "##ناس": 1680,
      "يحفر": 1681,
      "##ياك": 1682,
      "البنية": 1683,
      "الطائرة": 1684,
      "واقية": 1685,
      "الفريق": 1686,
      "ويلعب": 1687,
      "ويبتسم": 1688,
      "##واز": 1689,
      "يبتسمان": 1690,
      "المرمى": 1691,
      "مشمس": 1692,
      "مركب": 1693,
      "هوكي": 1694,
      "رمادية": 1695,
      "##باني": 1696,
      "يلتقط": 1697,
      "تدور": 1698,
      "##زياء": 1699,
      "فقاعات": 1700,
      "هذا": 1701,
      "غط": 1702,
      "قدي": 1703,
      "لأخذ": 1704,
      "##واج": 1705,
      "##هة": 1706,
      "##خل": 1707,
      "##بوب": 1708,
      "##زام": 1709,
      "##آخر": 1710,
      "الى": 1711,
      "الورق": 1712,
      "##بية": 1713,
      "منع": 1714,
      "المتس": 1715,
      "المغط": 1716,
      "يتزحلق": 1717,
      "يتظاهر": 1718,
      "##ابل": 1719,
      "السلالم": 1720,
      "الناف": 1721,
      "يقات": 1722,
      "الحصان": 1723,
      "الحقل": 1724,
      "ويت": 1725,
      "سترات": 1726,
      "يستخدم": 1727,
      "خارجا": 1728,
      "عنق": 1729,
      "زيًا": 1730,
      "أرجواني": 1731,
      "أنبوب": 1732,
      "بطانية": 1733,
      "عمود": 1734,
      "جينز": 1735,
      "شت": 1736,
      "وهم": 1737,
      "يميل": 1738,
      "##جادة": 1739,
      "##يم": 1740,
      "##ران": 1741,
      "##حن": 1742,
      "##فينة": 1743,
      "الان": 1744,
      "اللعب": 1745,
      "منظر": 1746,
      "معلق": 1747,
      "الألوان": 1748,
      "الأوساخ": 1749,
      "الكثير": 1750,
      "الشت": 1751,
      "السي": 1752,
      "السماء": 1753,
      "البحر": 1754,
      "يقبل": 1755,
      "بجانبه": 1756,
      "للسيارات": 1757,
      "تجلسان": 1758,
      "موكب": 1759,
      "ذراعيه": 1760,
      "##رابزين": 1761,
      "يتجمع": 1762,
      "داكنة": 1763,
      "ضخمة": 1764,
      "مضمار": 1765,
      "انت": 1766,
      "حدي": 1767,
      "حين": 1768,
      "قر": 1769,
      "له": 1770,
      "لق": 1771,
      "مائي": 1772,
      "يظهر": 1773,
      "##وء": 1774,
      "##جاة": 1775,
      "##اش": 1776,
      "##كر": 1777,
      "الض": 1778,
      "##ديو": 1779,
      "معًا": 1780,
      "حقائب": 1781,
      "الحمام": 1782,
      "يدها": 1783,
      "الذين": 1784,
      "باللونين": 1785,
      "الكبير": 1786,
      "لرجل": 1787,
      "المراهق": 1788,
      "أرضية": 1789,
      "يتدلى": 1790,
      "##لسلة": 1791,
      "الكاياك": 1792,
      "اش": 1793,
      "جنب": 1794,
      "حائط": 1795,
      "خر": 1796,
      "رطب": 1797,
      "شورت": 1798,
      "عد": 1799,
      "يبحث": 1800,
      "يلبس": 1801,
      "##جع": 1802,
      "##نون": 1803,
      "##عية": 1804,
      "##دراجة": 1805,
      "الألعاب": 1806,
      "الشباب": 1807,
      "##ابقة": 1808,
      "يساعد": 1809,
      "##وجد": 1810,
      "لاعبو": 1811,
      "تسوق": 1812,
      "بحبل": 1813,
      "##يتين": 1814,
      "موسي": 1815,
      "مصارع": 1816,
      "حصانًا": 1817,
      "عليها": 1818,
      "الهاتف": 1819,
      "مستلق": 1820,
      "وخوذة": 1821,
      "هيكل": 1822,
      "جذع": 1823,
      "با": 1824,
      "باب": 1825,
      "بيد": 1826,
      "تضحك": 1827,
      "تراقب": 1828,
      "ثياب": 1829,
      "دلو": 1830,
      "لت": 1831,
      "##ترب": 1832,
      "##ظلة": 1833,
      "##كن": 1834,
      "##كيني": 1835,
      "##ناول": 1836,
      "القر": 1837,
      "بنيًا": 1838,
      "الحي": 1839,
      "الأشخاص": 1840,
      "بمضرب": 1841,
      "رياضية": 1842,
      "وحيد": 1843,
      "يهز": 1844,
      "اللاعب": 1845,
      "##تلفة": 1846,
      "غطاء": 1847,
      "أذ": 1848,
      "ألعاب": 1849,
      "بإ": 1850,
      "بكرة": 1851,
      "بلعبة": 1852,
      "حفل": 1853,
      "رق": 1854,
      "صف": 1855,
      "مراه": 1856,
      "##وة": 1857,
      "##وير": 1858,
      "##تمع": 1859,
      "##حني": 1860,
      "##طلون": 1861,
      "##صى": 1862,
      "##ذف": 1863,
      "المخ": 1864,
      "##اتين": 1865,
      "الصور": 1866,
      "##هاز": 1867,
      "##ائم": 1868,
      "الثلجي": 1869,
      "الداخل": 1870,
      "تحاول": 1871,
      "مترو": 1872,
      "لوحه": 1873,
      "وجهها": 1874,
      "الصحراء": 1875,
      "المنزل": 1876,
      "الآخرين": 1877,
      "تلتقط": 1878,
      "تطل": 1879,
      "##يديهم": 1880,
      "داكن": 1881,
      "حفرة": 1882,
      "الشتاء": 1883,
      "السيارات": 1884,
      "تان": 1885,
      "جان": 1886,
      "حد": 1887,
      "حركة": 1888,
      "سن": 1889,
      "ضد": 1890,
      "قطار": 1891,
      "مغ": 1892,
      "يعبر": 1893,
      "##وى": 1894,
      "##امل": 1895,
      "##سمي": 1896,
      "##ضغ": 1897,
      "##مبي": 1898,
      "##مين": 1899,
      "##لية": 1900,
      "##خان": 1901,
      "##طارات": 1902,
      "##شاب": 1903,
      "##فتاة": 1904,
      "##ذان": 1905,
      "##جلب": 1906,
      "##لاد": 1907,
      "##لاق": 1908,
      "##لاقة": 1909,
      "الأنف": 1910,
      "طفلًا": 1911,
      "البط": 1912,
      "التلال": 1913,
      "الخيل": 1914,
      "الزح": 1915,
      "شعرها": 1916,
      "##وسط": 1917,
      "ذراعه": 1918,
      "جالسة": 1919,
      "رملي": 1920,
      "تأخذ": 1921,
      "شوارع": 1922,
      "صور": 1923,
      "لم": 1924,
      "مرب": 1925,
      "وزرقاء": 1926,
      "يديه": 1927,
      "##اوية": 1928,
      "##رخ": 1929,
      "##تا": 1930,
      "##هن": 1931,
      "##حت": 1932,
      "##زء": 1933,
      "الرق": 1934,
      "منزلق": 1935,
      "المبنى": 1936,
      "المباني": 1937,
      "##ماش": 1938,
      "##ودة": 1939,
      "العمي": 1940,
      "الرأس": 1941,
      "##يام": 1942,
      "ترمي": 1943,
      "تقفان": 1944,
      "ستة": 1945,
      "تسبح": 1946,
      "يجتمع": 1947,
      "##واح": 1948,
      "جبلًا": 1949,
      "مشهد": 1950,
      "أصلع": 1951,
      "جالس": 1952,
      "طفلاً": 1953,
      "لسانه": 1954,
      "##وازن": 1955,
      "##واجه": 1956,
      "انتظار": 1957,
      "تأكل": 1958,
      "حارس": 1959,
      "سحب": 1960,
      "شراب": 1961,
      "قد": 1962,
      "مقرب": 1963,
      "##هرة": 1964,
      "##لك": 1965,
      "##قيبة": 1966,
      "الظ": 1967,
      "##ارغ": 1968,
      "##مريكي": 1969,
      "##يرات": 1970,
      "الكر": 1971,
      "بالكرة": 1972,
      "يتع": 1973,
      "يتنافس": 1974,
      "القش": 1975,
      "الحيل": 1976,
      "متعد": 1977,
      "مسافر": 1978,
      "للت": 1979,
      "مقود": 1980,
      "يدور": 1981,
      "يدخن": 1982,
      "مرتدي": 1983,
      "يستعدون": 1984,
      "يهرب": 1985,
      "آسيوية": 1986,
      "السيارة": 1987,
      "يرقصون": 1988,
      "أكبر": 1989,
      "مليئة": 1990,
      "الأسفل": 1991,
      "حافلة": 1992,
      "الرياضية": 1993,
      "السلوقي": 1994,
      "حدث": 1995,
      "##مبيوتر": 1996,
      "أوراق": 1997,
      "تب": 1998,
      "جهاز": 1999,
      "ريف": 2000,
      "رسم": 2001,
      "سك": 2002,
      "سما": 2003,
      "سنا": 2004,
      "سلسلة": 2005,
      "صيد": 2006,
      "لأ": 2007,
      "ميكروفون": 2008,
      "وبن": 2009,
      "ومع": 2010,
      "##وك": 2011,
      "##وذ": 2012,
      "##جي": 2013,
      "##نش": 2014,
      "##زة": 2015,
      "##شرة": 2016,
      "منق": 2017,
      "رجلين": 2018,
      "##يران": 2019,
      "معرض": 2020,
      "صغيرًا": 2021,
      "العلم": 2022,
      "##ياج": 2023,
      "الهوائية": 2024,
      "والب": 2025,
      "واثن": 2026,
      "تحلق": 2027,
      "المتنزه": 2028,
      "##قرأ": 2029,
      "##سكري": 2030,
      "وتن": 2031,
      "##سمنت": 2032,
      "المطر": 2033,
      "مليء": 2034,
      "نفسه": 2035,
      "ورقية": 2036,
      "مهرج": 2037,
      "لقطة": 2038,
      "مقربة": 2039,
      "حزام": 2040,
      "درابزين": 2041,
      "شرفة": 2042,
      "عص": 2043,
      "غير": 2044,
      "مث": 2045,
      "##نق": 2046,
      "##هرب": 2047,
      "##ضبان": 2048,
      "##كم": 2049,
      "##شجار": 2050,
      "##انة": 2051,
      "##ولة": 2052,
      "بالون": 2053,
      "السك": 2054,
      "##وردي": 2055,
      "يمضغ": 2056,
      "الحدي": 2057,
      "تحيط": 2058,
      "##شيء": 2059,
      "##هرول": 2060,
      "ويقف": 2061,
      "ويقفز": 2062,
      "ويمسك": 2063,
      "آخرون": 2064,
      "للم": 2065,
      "##وانات": 2066,
      "الخلفيتين": 2067,
      "##غطي": 2068,
      "محطة": 2069,
      "يعانق": 2070,
      "الطفلة": 2071,
      "مشجرة": 2072,
      "الآسي": 2073,
      "بخارية": 2074,
      "زوجين": 2075,
      "يلوح": 2076,
      "يغوص": 2077,
      "تستعد": 2078,
      "شريط": 2079,
      "شريحة": 2080,
      "المتفرجين": 2081,
      "البالغ": 2082,
      "مركبة": 2083,
      "حض": 2084,
      "فم": 2085,
      "فارغ": 2086,
      "##يق": 2087,
      "##يلاد": 2088,
      "##بق": 2089,
      "##قى": 2090,
      "##فاع": 2091,
      "##الي": 2092,
      "##اري": 2093,
      "##لاست": 2094,
      "الأريكة": 2095,
      "##راف": 2096,
      "بالخ": 2097,
      "يتحرك": 2098,
      "##ريح": 2099,
      "##وقوف": 2100,
      "الرش": 2101,
      "##ياس": 2102,
      "التس": 2103,
      "الطيور": 2104,
      "##وحلة": 2105,
      "للنف": 2106,
      "تسحب": 2107,
      "أشجار": 2108,
      "يتسلقون": 2109,
      "البيكيني": 2110,
      "جبلية": 2111,
      "مرت": 2112,
      "##لعق": 2113,
      "الصغيرات": 2114,
      "بدراج": 2115,
      "يرقد": 2116,
      "وراءه": 2117,
      "تعمل": 2118,
      "##زهة": 2119,
      "المطبخ": 2120,
      "بنفس": 2121,
      "قصيرة": 2122,
      "ينتظرون": 2123,
      "طفلا": 2124,
      "ينفض": 2125,
      "بعيدا": 2126,
      "لصورة": 2127,
      "المغطاة": 2128,
      "الحديدية": 2129,
      "للنفخ": 2130,
      "آذان": 2131,
      "أق": 2132,
      "زهور": 2133,
      "زفاف": 2134,
      "عض": 2135,
      "عين": 2136,
      "عجلات": 2137,
      "فضية": 2138,
      "كما": 2139,
      "نجاة": 2140,
      "وحمراء": 2141,
      "يك": 2142,
      "##جول": 2143,
      "##حلة": 2144,
      "##خدام": 2145,
      "##زون": 2146,
      "الظهر": 2147,
      "الاطف": 2148,
      "##ارعة": 2149,
      "المز": 2150,
      "الموج": 2151,
      "المباراة": 2152,
      "##لاح": 2153,
      "الأق": 2154,
      "بالدراجة": 2155,
      "الست": 2156,
      "##ياد": 2157,
      "##طفو": 2158,
      "مقاعد": 2159,
      "تنورة": 2160,
      "تنتظر": 2161,
      "وجينز": 2162,
      "يصنع": 2163,
      "صخريًا": 2164,
      "##زحف": 2165,
      "مظل": 2166,
      "سروالا": 2167,
      "قصير": 2168,
      "الجدران": 2169,
      "أفريق": 2170,
      "الرمادية": 2171,
      "النافذة": 2172,
      "والبني": 2173,
      "تي": 2174,
      "تبحث": 2175,
      "جمي": 2176,
      "حاف": 2177,
      "حلبة": 2178,
      "رمي": 2179,
      "ربا": 2180,
      "شا": 2181,
      "شب": 2182,
      "عب": 2183,
      "عجلة": 2184,
      "فرقة": 2185,
      "قبال": 2186,
      "كوب": 2187,
      "لديها": 2188,
      "وك": 2189,
      "يلقي": 2190,
      "يلعق": 2191,
      "يزحف": 2192,
      "##جات": 2193,
      "##يان": 2194,
      "##يون": 2195,
      "##سار": 2196,
      "##لوي": 2197,
      "##طوم": 2198,
      "##صط": 2199,
      "##بات": 2200,
      "##فخ": 2201,
      "فيديو": 2202,
      "##ديق": 2203,
      "رجليه": 2204,
      "الأمام": 2205,
      "السراويل": 2206,
      "ترفع": 2207,
      "ينحني": 2208,
      "الثلجية": 2209,
      "الداك": 2210,
      "##هرية": 2211,
      "##اهد": 2212,
      "الغابات": 2213,
      "جدول": 2214,
      "##واق": 2215,
      "وشورت": 2216,
      "مشروب": 2217,
      "وسروال": 2218,
      "بأداء": 2219,
      "حيث": 2220,
      "ذراعيها": 2221,
      "مختلفة": 2222,
      "معدنية": 2223,
      "اليسار": 2224,
      "الاست": 2225,
      "##لوانية": 2226,
      "تطير": 2227,
      "يرقصن": 2228,
      "شيئا": 2229,
      "المراهقة": 2230,
      "محاطة": 2231,
      "شتوية": 2232,
      "المراهقين": 2233,
      "الرقم": 2234,
      "قدمي": 2235,
      "سماعات": 2236,
      "قبالة": 2237,
      "أم": 2238,
      "جميل": 2239,
      "زهرية": 2240,
      "سم": 2241,
      "سكة": 2242,
      "سفح": 2243,
      "سجادة": 2244,
      "شد": 2245,
      "عيد": 2246,
      "فرو": 2247,
      "قبعات": 2248,
      "لح": 2249,
      "هدف": 2250,
      "ويد": 2251,
      "##وخ": 2252,
      "##وعة": 2253,
      "##واه": 2254,
      "##جيرات": 2255,
      "##رس": 2256,
      "##رد": 2257,
      "##مهور": 2258,
      "##صر": 2259,
      "##صبع": 2260,
      "##قلب": 2261,
      "##ظة": 2262,
      "##شير": 2263,
      "##مريكية": 2264,
      "##اتل": 2265,
      "##ناث": 2266,
      "السفينة": 2267,
      "##هوك": 2268,
      "##زلجة": 2269,
      "الثلاثة": 2270,
      "القارب": 2271,
      "والس": 2272,
      "والع": 2273,
      "الجانب": 2274,
      "الحصول": 2275,
      "الحائط": 2276,
      "كبيرًا": 2277,
      "##اهدة": 2278,
      "يشارك": 2279,
      "يطلق": 2280,
      "يستمتع": 2281,
      "دراجتها": 2282,
      "والأزرق": 2283,
      "##كيت": 2284,
      "##عبين": 2285,
      "الجبلية": 2286,
      "مكت": 2287,
      "بهلوانية": 2288,
      "الوردية": 2289,
      "بشكل": 2290,
      "كتف": 2291,
      "بقرة": 2292,
      "##نفال": 2293,
      "البرتقالية": 2294,
      "ملتح": 2295,
      "إليه": 2296,
      "اشخاص": 2297,
      "عدد": 2298,
      "باست": 2299,
      "مراهق": 2300,
      "الأنفاق": 2301,
      "بالخارج": 2302,
      "إع": 2303,
      "بدون": 2304,
      "جيب": 2305,
      "حيل": 2306,
      "حفلة": 2307,
      "رؤ": 2308,
      "سان": 2309,
      "سراويل": 2310,
      "قا": 2311,
      "كري": 2312,
      "مضاء": 2313,
      "ووا": 2314,
      "وسوداء": 2315,
      "يوجد": 2316,
      "##واف": 2317,
      "##اية": 2318,
      "##رك": 2319,
      "##رون": 2320,
      "##در": 2321,
      "##لواح": 2322,
      "##خف": 2323,
      "##بعض": 2324,
      "##شاة": 2325,
      "الها": 2326,
      "الفر": 2327,
      "الوجه": 2328,
      "كلبها": 2329,
      "المنافس": 2330,
      "بالت": 2331,
      "##ريبة": 2332,
      "##ابلة": 2333,
      "العجلات": 2334,
      "الرسمي": 2335,
      "الطاولة": 2336,
      "مجعد": 2337,
      "القبعات": 2338,
      "والآخر": 2339,
      "الجزء": 2340,
      "مسي": 2341,
      "مقل": 2342,
      "بحي": 2343,
      "شابان": 2344,
      "وشم": 2345,
      "تقود": 2346,
      "كرات": 2347,
      "عاليا": 2348,
      "اليمين": 2349,
      "وحقيبة": 2350,
      "لرمي": 2351,
      "الدرجات": 2352,
      "اللاعبين": 2353,
      "أفواه": 2354,
      "المنحدرات": 2355,
      "الموسيقى": 2356,
      "الحيوانات": 2357,
      "وبنطلون": 2358,
      "##وذات": 2359,
      "بدراجته": 2360,
      "بنفسجي": 2361,
      "باستخدام": 2362,
      "وواحد": 2363,
      "أيديهم": 2364,
      "بت": 2365,
      "حاد": 2366,
      "زيا": 2367,
      "زاوية": 2368,
      "سوق": 2369,
      "سماء": 2370,
      "شر": 2371,
      "صح": 2372,
      "طيور": 2373,
      "غيتار": 2374,
      "ليل": 2375,
      "لفتاة": 2376,
      "نار": 2377,
      "يجلب": 2378,
      "##صوف": 2379,
      "##غنام": 2380,
      "##ّة": 2381,
      "##ذهب": 2382,
      "المج": 2383,
      "المنا": 2384,
      "يقفن": 2385,
      "الكري": 2386,
      "##ولف": 2387,
      "الشجيرات": 2388,
      "##ربعة": 2389,
      "بالع": 2390,
      "بالط": 2391,
      "الركبي": 2392,
      "الثور": 2393,
      "الثلوج": 2394,
      "القط": 2395,
      "##برتقال": 2396,
      "الخشبي": 2397,
      "والبيضاء": 2398,
      "##يدات": 2399,
      "##وبة": 2400,
      "الزوج": 2401,
      "يستريح": 2402,
      "برتقالياً": 2403,
      "وتبتسم": 2404,
      "وتحمل": 2405,
      "محمول": 2406,
      "تقول": 2407,
      "##ضيع": 2408,
      "تعزف": 2409,
      "اليدين": 2410,
      "رياضة": 2411,
      "مدرب": 2412,
      "رملية": 2413,
      "##وقفة": 2414,
      "ممد": 2415,
      "جلدية": 2416,
      "منعطف": 2417,
      "جانبي": 2418,
      "واثنين": 2419,
      "سمكة": 2420,
      "مسيجة": 2421,
      "الكريكيت": 2422,
      "أج": 2423,
      "تهب": 2424,
      "تعبر": 2425,
      "سلم": 2426,
      "شكل": 2427,
      "عق": 2428,
      "عرب": 2429,
      "كش": 2430,
      "كيس": 2431,
      "كراسي": 2432,
      "لحية": 2433,
      "مأ": 2434,
      "نائم": 2435,
      "نزهة": 2436,
      "يدي": 2437,
      "##يح": 2438,
      "##اذ": 2439,
      "##عادة": 2440,
      "##تى": 2441,
      "##حف": 2442,
      "##طال": 2443,
      "##طاط": 2444,
      "##ديل": 2445,
      "الموحلة": 2446,
      "الأد": 2447,
      "##راكب": 2448,
      "##ودا": 2449,
      "الشجرة": 2450,
      "الشرطة": 2451,
      "##ريف": 2452,
      "صغيرات": 2453,
      "العروس": 2454,
      "يحلق": 2455,
      "السور": 2456,
      "أبيضان": 2457,
      "##حدى": 2458,
      "البق": 2459,
      "البلاست": 2460,
      "يجلسن": 2461,
      "##عداد": 2462,
      "الجسر": 2463,
      "الجراء": 2464,
      "##افع": 2465,
      "يقومون": 2466,
      "أزرقًا": 2467,
      "##صفراء": 2468,
      "خارجاً": 2469,
      "يصل": 2470,
      "يبتسمون": 2471,
      "الآيس": 2472,
      "ورديًا": 2473,
      "ظهرها": 2474,
      "عالياً": 2475,
      "تعانق": 2476,
      "تدفع": 2477,
      "تطارد": 2478,
      "تشير": 2479,
      "لافتات": 2480,
      "##كتب": 2481,
      "ويرتدي": 2482,
      "الأعلام": 2483,
      "##ازات": 2484,
      "أنفه": 2485,
      "بلوز": 2486,
      "ولد": 2487,
      "قديمة": 2488,
      "خرسان": 2489,
      "السكك": 2490,
      "الآسيوي": 2491,
      "كريم": 2492,
      "أزياء": 2493,
      "ألواح": 2494,
      "بشيء": 2495,
      "داف": 2496,
      "زهرة": 2497,
      "شرق": 2498,
      "شبان": 2499,
      "ضبا": 2500,
      "ضمن": 2501,
      "ضيق": 2502,
      "غام": 2503,
      "فصل": 2504,
      "قل": 2505,
      "قطة": 2506,
      "قماش": 2507,
      "لون": 2508,
      "لمس": 2509,
      "مضحك": 2510,
      "وولد": 2511,
      "##وبا": 2512,
      "##جاب": 2513,
      "##يش": 2514,
      "##افلة": 2515,
      "##سق": 2516,
      "##دل": 2517,
      "##دأ": 2518,
      "##طواق": 2519,
      "##صي": 2520,
      "##صور": 2521,
      "##ثلاثة": 2522,
      "##كس": 2523,
      "##شى": 2524,
      "##الية": 2525,
      "منخف": 2526,
      "الممر": 2527,
      "المعد": 2528,
      "المائية": 2529,
      "##ينية": 2530,
      "الأم": 2531,
      "##رائ": 2532,
      "الشاب": 2533,
      "الشابات": 2534,
      "##ربطة": 2535,
      "يلعبن": 2536,
      "العسكري": 2537,
      "السم": 2538,
      "السوق": 2539,
      "##ائع": 2540,
      "القوارب": 2541,
      "ينبح": 2542,
      "##دمة": 2543,
      "يمد": 2544,
      "يقترب": 2545,
      "والم": 2546,
      "الحصى": 2547,
      "واقف": 2548,
      "وأصفر": 2549,
      "متحرك": 2550,
      "متوقفة": 2551,
      "آخران": 2552,
      "##اصة": 2553,
      "أسنان": 2554,
      "القدمين": 2555,
      "يشم": 2556,
      "أحدهم": 2557,
      "يمران": 2558,
      "حوله": 2559,
      "وجوه": 2560,
      "خلفي": 2561,
      "جدارًا": 2562,
      "محش": 2563,
      "وشخص": 2564,
      "يعطي": 2565,
      "##راعي": 2566,
      "مرصوف": 2567,
      "معطفاً": 2568,
      "اللينة": 2569,
      "المسافة": 2570,
      "بشعر": 2571,
      "تشاهد": 2572,
      "الإطارات": 2573,
      "ليلا": 2574,
      "وقميصا": 2575,
      "بلاستيكي": 2576,
      "##فحص": 2577,
      "إليها": 2578,
      "الرملية": 2579,
      "يحتض": 2580,
      "للأطفال": 2581,
      "يقاتلون": 2582,
      "يقبلان": 2583,
      "موسيقية": 2584,
      "الزحافات": 2585,
      "متعددة": 2586,
      "تبدو": 2587,
      "ومعطف": 2588,
      "الاطفال": 2589,
      "رباعية": 2590,
      "شبكة": 2591,
      "عبور": 2592,
      "سانتا": 2593,
      "بحيلة": 2594,
      "احت": 2595,
      "بص": 2596,
      "تظهر": 2597,
      "جن": 2598,
      "حانة": 2599,
      "رك": 2600,
      "عارية": 2601,
      "علم": 2602,
      "كمامة": 2603,
      "لها": 2604,
      "يواجه": 2605,
      "يهرول": 2606,
      "##وابة": 2607,
      "##يع": 2608,
      "##يًا": 2609,
      "##نها": 2610,
      "##ادية": 2611,
      "##رح": 2612,
      "##رية": 2613,
      "##هى": 2614,
      "##مية": 2615,
      "##الب": 2616,
      "مناف": 2617,
      "##ديف": 2618,
      "رجلاً": 2619,
      "المست": 2620,
      "المظلة": 2621,
      "##ونة": 2622,
      "الأح": 2623,
      "الأص": 2624,
      "الأغنام": 2625,
      "##راص": 2626,
      "بالك": 2627,
      "السيدة": 2628,
      "##هاية": 2629,
      "الخشب": 2630,
      "ثلاثية": 2631,
      "الحق": 2632,
      "الدفاع": 2633,
      "وأحذية": 2634,
      "النفس": 2635,
      "بجانبها": 2636,
      "كلابان": 2637,
      "والأصفر": 2638,
      "##وارة": 2639,
      "وتر": 2640,
      "يسبحان": 2641,
      "ورديا": 2642,
      "يشاهدان": 2643,
      "##روبات": 2644,
      "يتحدثون": 2645,
      "مزدحمة": 2646,
      "تصوير": 2647,
      "بنطال": 2648,
      "فساتين": 2649,
      "أكياس": 2650,
      "المدرج": 2651,
      "مدخل": 2652,
      "ساقطة": 2653,
      "يخوض": 2654,
      "ضخم": 2655,
      "##تبئ": 2656,
      "القرص": 2657,
      "ريفية": 2658,
      "رسمية": 2659,
      "البالغين": 2660,
      "مرتفع": 2661,
      "عربات": 2662,
      "مأوى": 2663,
      "السمك": 2664,
      "أخ": 2665,
      "اصط": 2666,
      "تتق": 2667,
      "تقرأ": 2668,
      "حجر": 2669,
      "دو": 2670,
      "دب": 2671,
      "ظهور": 2672,
      "قذ": 2673,
      "قوس": 2674,
      "لس": 2675,
      "لبا": 2676,
      "لكلب": 2677,
      "مبل": 2678,
      "موحل": 2679,
      "مزلجة": 2680,
      "وحد": 2681,
      "وربطة": 2682,
      "يلف": 2683,
      "يبح": 2684,
      "يغطي": 2685,
      "##وغ": 2686,
      "##اث": 2687,
      "##سع": 2688,
      "##عى": 2689,
      "##رجل": 2690,
      "##مون": 2691,
      "##صب": 2692,
      "##ثى": 2693,
      "##ثبان": 2694,
      "##كئ": 2695,
      "##غال": 2696,
      "الخر": 2697,
      "الوا": 2698,
      "##بيل": 2699,
      "##الث": 2700,
      "منهم": 2701,
      "المضرب": 2702,
      "الأما": 2703,
      "الأمريكي": 2704,
      "الكراسي": 2705,
      "الكمبيوتر": 2706,
      "يتش": 2707,
      "##ابع": 2708,
      "##موع": 2709,
      "##موضع": 2710,
      "السروال": 2711,
      "##شبه": 2712,
      "القمصان": 2713,
      "يمت": 2714,
      "الجاف": 2715,
      "الحبال": 2716,
      "الحافلة": 2717,
      "##اراتيه": 2718,
      "##ليدي": 2719,
      "يتسلقان": 2720,
      "يدا": 2721,
      "الصخرة": 2722,
      "يصور": 2723,
      "يتزلجون": 2724,
      "محاولة": 2725,
      "يمسكون": 2726,
      "##ضحكة": 2727,
      "المرور": 2728,
      "يتحدثان": 2729,
      "سيار": 2730,
      "##كتابات": 2731,
      "الهدف": 2732,
      "أعلام": 2733,
      "فريقان": 2734,
      "##لوى": 2735,
      "الخاصة": 2736,
      "بسعادة": 2737,
      "هاتفه": 2738,
      "وعاء": 2739,
      "الأعشاب": 2740,
      "يتبعه": 2741,
      "يتظاهرون": 2742,
      "حديدي": 2743,
      "قرص": 2744,
      "شرابًا": 2745,
      "للتزلج": 2746,
      "الرشاش": 2747,
      "التسوق": 2748,
      "الموجة": 2749,
      "إعلان": 2750,
      "رؤوس": 2751,
      "كشك": 2752,
      "يدير": 2753,
      "الأدغال": 2754,
      "دافئة": 2755,
      "جنبا": 2756,
      "لباس": 2757,
      "ببعض": 2758,
      "تخرج": 2759,
      "تؤدي": 2760,
      "حلقة": 2761,
      "حلاقة": 2762,
      "خف": 2763,
      "رضيع": 2764,
      "سه": 2765,
      "شرطة": 2766,
      "ضرب": 2767,
      "ضوء": 2768,
      "عام": 2769,
      "علبة": 2770,
      "عداء": 2771,
      "فرع": 2772,
      "قضبان": 2773,
      "مؤ": 2774,
      "مخر": 2775,
      "مضحكة": 2776,
      "نهاية": 2777,
      "##وبر": 2778,
      "##جا": 2779,
      "##ده": 2780,
      "##ضم": 2781,
      "##خرة": 2782,
      "##بلة": 2783,
      "##قلبة": 2784,
      "##زهور": 2785,
      "##كع": 2786,
      "##كز": 2787,
      "##شرب": 2788,
      "الوع": 2789,
      "منت": 2790,
      "يرسم": 2791,
      "##اردون": 2792,
      "##لاعب": 2793,
      "##ماس": 2794,
      "الأخرى": 2795,
      "الكبار": 2796,
      "الكرات": 2797,
      "الشبان": 2798,
      "بالص": 2799,
      "بالناس": 2800,
      "##حدار": 2801,
      "البل": 2802,
      "##ائن": 2803,
      "##ائل": 2804,
      "الثياب": 2805,
      "القمامة": 2806,
      "الخريف": 2807,
      "##تسلق": 2808,
      "##باز": 2809,
      "والكلب": 2810,
      "##لفوف": 2811,
      "الدخان": 2812,
      "الدوارة": 2813,
      "الفقا": 2814,
      "الفرقة": 2815,
      "ويس": 2816,
      "ويجلس": 2817,
      "للغ": 2818,
      "يطاردون": 2819,
      "الغسق": 2820,
      "تنفخ": 2821,
      "والأحمر": 2822,
      "خلفية": 2823,
      "##ولات": 2824,
      "##اخلي": 2825,
      "يطاردان": 2826,
      "يراقبون": 2827,
      "قاربًا": 2828,
      "يشاهده": 2829,
      "بألوان": 2830,
      "يرقصان": 2831,
      "يلمس": 2832,
      "بشرة": 2833,
      "بقع": 2834,
      "سيارات": 2835,
      "##كتاف": 2836,
      "يبدأ": 2837,
      "مفتوحة": 2838,
      "مخططة": 2839,
      "كتابًا": 2840,
      "السلوقية": 2841,
      "المتفرجون": 2842,
      "وضعية": 2843,
      "قديم": 2844,
      "ويتحدث": 2845,
      "الانحدار": 2846,
      "رقم": 2847,
      "العميق": 2848,
      "وتنظر": 2849,
      "مظلمة": 2850,
      "تيار": 2851,
      "حافي": 2852,
      "قدميه": 2853,
      "فروي": 2854,
      "والسراويل": 2855,
      "شرطي": 2856,
      "الزوجان": 2857,
      "خرساني": 2858,
      "المدرجات": 2859,
      "مخروط": 2860,
      "الوعرة": 2861,
      "آلة": 2862,
      "أكتاف": 2863,
      "بطة": 2864,
      "تضرب": 2865,
      "جري": 2866,
      "جبال": 2867,
      "حام": 2868,
      "رب": 2869,
      "رقب": 2870,
      "ركل": 2871,
      "رحلة": 2872,
      "صاف": 2873,
      "عيون": 2874,
      "فرق": 2875,
      "فني": 2876,
      "فنون": 2877,
      "قزح": 2878,
      "لع": 2879,
      "لد": 2880,
      "لإ": 2881,
      "مرق": 2882,
      "ملفوف": 2883,
      "وه": 2884,
      "واب": 2885,
      "وبرتقال": 2886,
      "يديها": 2887,
      "يذهب": 2888,
      "##ومو": 2889,
      "##جوم": 2890,
      "##عث": 2891,
      "##عكة": 2892,
      "##تعد": 2893,
      "##مد": 2894,
      "##صق": 2895,
      "##صيرة": 2896,
      "##قص": 2897,
      "##آة": 2898,
      "الرقص": 2899,
      "الوقوف": 2900,
      "##ارض": 2901,
      "الملاك": 2902,
      "##يناء": 2903,
      "##لادة": 2904,
      "##ماً": 2905,
      "معه": 2906,
      "الأزياء": 2907,
      "الكثبان": 2908,
      "يركع": 2909,
      "صبيًا": 2910,
      "##ناق": 2911,
      "العمر": 2912,
      "أبيضًا": 2913,
      "الصيد": 2914,
      "الصورة": 2915,
      "القبعة": 2916,
      "##طفاء": 2917,
      "أمامه": 2918,
      "الخط": 2919,
      "##فرف": 2920,
      "والبن": 2921,
      "والنظارات": 2922,
      "الجري": 2923,
      "الجيتار": 2924,
      "الحافة": 2925,
      "الحاجز": 2926,
      "وامرأ": 2927,
      "الدفع": 2928,
      "ويضع": 2929,
      "مسارات": 2930,
      "مقابل": 2931,
      "صخور": 2932,
      "##أسفل": 2933,
      "تتنافس": 2934,
      "بحيل": 2935,
      "والأطفال": 2936,
      "##غطية": 2937,
      "الصخري": 2938,
      "حولها": 2939,
      "مشرق": 2940,
      "مشاهدة": 2941,
      "##احب": 2942,
      "موجود": 2943,
      "الصبية": 2944,
      "##اقط": 2945,
      "يتمتع": 2946,
      "##ضيب": 2947,
      "##فتح": 2948,
      "قفص": 2949,
      "عندما": 2950,
      "سروالاً": 2951,
      "##عمدة": 2952,
      "تشرب": 2953,
      "جسمًا": 2954,
      "المدر": 2955,
      "##انقان": 2956,
      "يختبئ": 2957,
      "ينفخ": 2958,
      "حامل": 2959,
      "فقاعة": 2960,
      "فستانًا": 2961,
      "قمصانا": 2962,
      "وشاحًا": 2963,
      "الرمادي": 2964,
      "ويلعبون": 2965,
      "أرجوانيًا": 2966,
      "يتجمعون": 2967,
      "العميقة": 2968,
      "الظلام": 2969,
      "الكرنفال": 2970,
      "مرتدية": 2971,
      "المتنزهين": 2972,
      "مثل": 2973,
      "السترة": 2974,
      "أفريقي": 2975,
      "شاشة": 2976,
      "الداكن": 2977,
      "ممدودة": 2978,
      "##راصنة": 2979,
      "تتقاتل": 2980,
      "سهل": 2981,
      "وهناك": 2982,
      "أب": 2983,
      "أني": 2984,
      "أحذية": 2985,
      "إحدى": 2986,
      "بك": 2987,
      "بار": 2988,
      "توقف": 2989,
      "جمهور": 2990,
      "جليدي": 2991,
      "حلة": 2992,
      "دخان": 2993,
      "داخلي": 2994,
      "سع": 2995,
      "سح": 2996,
      "سقط": 2997,
      "سفينة": 2998,
      "صاحب": 2999,
      "ضفة": 3000,
      "قاعدة": 3001,
      "قابلة": 3002,
      "قضيب": 3003,
      "كث": 3004,
      "كبار": 3005,
      "نوع": 3006,
      "ويرا": 3007,
      "وآخر": 3008,
      "وصفراء": 3009,
      "وثلاثة": 3010,
      "يؤ": 3011,
      "يوازن": 3012,
      "يطفو": 3013,
      "##وطة": 3014,
      "##نات": 3015,
      "##اقة": 3016,
      "##عي": 3017,
      "##عل": 3018,
      "##علام": 3019,
      "##مباز": 3020,
      "##طلق": 3021,
      "##طلاق": 3022,
      "##صنع": 3023,
      "##قود": 3024,
      "##شف": 3025,
      "منحن": 3026,
      "المك": 3027,
      "الميلاد": 3028,
      "الأك": 3029,
      "الكمان": 3030,
      "##ولين": 3031,
      "صغيرين": 3032,
      "العشبي": 3033,
      "العصا": 3034,
      "العجلة": 3035,
      "يحيط": 3036,
      "##حدق": 3037,
      "##يارة": 3038,
      "##يادة": 3039,
      "البد": 3040,
      "الطرق": 3041,
      "الطبول": 3042,
      "والج": 3043,
      "والمرأة": 3044,
      "الحجم": 3045,
      "الكلبان": 3046,
      "##شياء": 3047,
      "متع": 3048,
      "متزحلق": 3049,
      "ويح": 3050,
      "ويست": 3051,
      "مسابقة": 3052,
      "كبيران": 3053,
      "الزجاج": 3054,
      "تتزلج": 3055,
      "تتصارع": 3056,
      "يرتفع": 3057,
      "منحدرات": 3058,
      "خلفهما": 3059,
      "##ابقات": 3060,
      "##نساء": 3061,
      "الذرة": 3062,
      "يأرجح": 3063,
      "يبتسمن": 3064,
      "امرأتين": 3065,
      "وبعض": 3066,
      "##اكس": 3067,
      "بدلات": 3068,
      "مصعد": 3069,
      "الوراء": 3070,
      "##زهار": 3071,
      "طوقًا": 3072,
      "##دوات": 3073,
      "لركل": 3074,
      "بالأشجار": 3075,
      "أكمام": 3076,
      "يتقاتلون": 3077,
      "هذه": 3078,
      "ممشى": 3079,
      "##قيق": 3080,
      "يجدفون": 3081,
      "الرملي": 3082,
      "الموسيقية": 3083,
      "الورقية": 3084,
      "المخيم": 3085,
      "صحيفة": 3086,
      "قليل": 3087,
      "يبحر": 3088,
      "الفقاعات": 3089,
      "للغاية": 3090,
      "حاملاً": 3091,
      "وامرأتان": 3092,
      "ويراقب": 3093,
      "منحنى": 3094,
      "أد": 3095,
      "ان": 3096,
      "ات": 3097,
      "بف": 3098,
      "ثوبا": 3099,
      "جز": 3100,
      "صع": 3101,
      "صورا": 3102,
      "طبق": 3103,
      "علا": 3104,
      "قابل": 3105,
      "كلا": 3106,
      "كيف": 3107,
      "كمبيوتر": 3108,
      "لدي": 3109,
      "لضرب": 3110,
      "لأسفل": 3111,
      "ميلاد": 3112,
      "ويل": 3113,
      "##واء": 3114,
      "##واب": 3115,
      "##جديف": 3116,
      "##نحة": 3117,
      "##سل": 3118,
      "##على": 3119,
      "##رى": 3120,
      "##تل": 3121,
      "##دس": 3122,
      "##فريق": 3123,
      "##ذرع": 3124,
      "اللعبة": 3125,
      "منه": 3126,
      "##اريس": 3127,
      "المشي": 3128,
      "##اتان": 3129,
      "الكاراتيه": 3130,
      "بالس": 3131,
      "بالر": 3132,
      "يتموضع": 3133,
      "##ناح": 3134,
      "##نيسة": 3135,
      "يحصل": 3136,
      "السجادة": 3137,
      "الرطب": 3138,
      "##هاجم": 3139,
      "##ائلة": 3140,
      "##ائمة": 3141,
      "التزحلق": 3142,
      "الطين": 3143,
      "مجرى": 3144,
      "الثلاث": 3145,
      "القراصنة": 3146,
      "والوردي": 3147,
      "##لفزي": 3148,
      "مقهى": 3149,
      "أشعث": 3150,
      "##ليق": 3151,
      "تحملان": 3152,
      "تتمتع": 3153,
      "يجرف": 3154,
      "يصارع": 3155,
      "الذهبي": 3156,
      "أنثى": 3157,
      "تقترب": 3158,
      "وجهًا": 3159,
      "وفتى": 3160,
      "وسادة": 3161,
      "وسراويل": 3162,
      "لاعبين": 3163,
      "الفتى": 3164,
      "مكتب": 3165,
      "مصارعة": 3166,
      "يجريان": 3167,
      "مظلم": 3168,
      "تبتسمان": 3169,
      "تدخن": 3170,
      "قطيع": 3171,
      "يصطدم": 3172,
      "جرفًا": 3173,
      "##دقاء": 3174,
      "##لوقة": 3175,
      "المشروبات": 3176,
      "دراجاتهم": 3177,
      "دراجاتهما": 3178,
      "متنزه": 3179,
      "ساقيه": 3180,
      "فستاناً": 3181,
      "هاتفها": 3182,
      "وينظران": 3183,
      "يحدقان": 3184,
      "يتسابقان": 3185,
      "المصور": 3186,
      "خرطوم": 3187,
      "أذرع": 3188,
      "مربوطة": 3189,
      "الظل": 3190,
      "منقوش": 3191,
      "المزدح": 3192,
      "جميلة": 3193,
      "##باتات": 3194,
      "أفواههم": 3195,
      "عقال": 3196,
      "##طاطة": 3197,
      "غامق": 3198,
      "منخفض": 3199,
      "يحتضنان": 3200,
      "اصطياد": 3201,
      "الوادي": 3202,
      "ربطة": 3203,
      "والبنية": 3204,
      "يؤدون": 3205,
      "##لفزيون": 3206,
      "أح": 3207,
      "أغ": 3208,
      "ألوان": 3209,
      "أمريكي": 3210,
      "ار": 3211,
      "بقط": 3212,
      "بكاميرا": 3213,
      "بوابة": 3214,
      "تأرجح": 3215,
      "تطفو": 3216,
      "ثور": 3217,
      "ثالث": 3218,
      "جوار": 3219,
      "خصر": 3220,
      "خوذات": 3221,
      "رفع": 3222,
      "شراع": 3223,
      "صنب": 3224,
      "صديق": 3225,
      "ضاب": 3226,
      "طو": 3227,
      "طبيع": 3228,
      "عا": 3229,
      "كائن": 3230,
      "كعكة": 3231,
      "لط": 3232,
      "لش": 3233,
      "ممو": 3234,
      "نق": 3235,
      "وذ": 3236,
      "وهما": 3237,
      "ورقة": 3238,
      "يفتح": 3239,
      "##وصول": 3240,
      "##يض": 3241,
      "##رن": 3242,
      "##رّ": 3243,
      "##رعة": 3244,
      "##تز": 3245,
      "##تال": 3246,
      "##داف": 3247,
      "##هف": 3248,
      "##هزة": 3249,
      "##منت": 3250,
      "##حل": 3251,
      "##حمام": 3252,
      "##خت": 3253,
      "##خول": 3254,
      "##طل": 3255,
      "##طبة": 3256,
      "##طلع": 3257,
      "##باء": 3258,
      "##ثل": 3259,
      "##كلون": 3260,
      "##غل": 3261,
      "الراعي": 3262,
      "##بيذ": 3263,
      "##الج": 3264,
      "منهما": 3265,
      "##ديدة": 3266,
      "رجلا": 3267,
      "الميكروفون": 3268,
      "الميناء": 3269,
      "##لاط": 3270,
      "الأمريكية": 3271,
      "##ريع": 3272,
      "السيدات": 3273,
      "السومو": 3274,
      "يسافر": 3275,
      "##وقع": 3276,
      "أسودان": 3277,
      "ترش": 3278,
      "##اطع": 3279,
      "الطلاب": 3280,
      "قميصه": 3281,
      "القاعدة": 3282,
      "القيام": 3283,
      "ينقلب": 3284,
      "##باق": 3285,
      "##باما": 3286,
      "يقلب": 3287,
      "والق": 3288,
      "الحجر": 3289,
      "وأحمر": 3290,
      "الفس": 3291,
      "الفارس": 3292,
      "النطاطة": 3293,
      "ويقرأ": 3294,
      "ويشير": 3295,
      "مسابقات": 3296,
      "للقفز": 3297,
      "أسمنت": 3298,
      "لاعبان": 3299,
      "##قبض": 3300,
      "السباح": 3301,
      "يجذف": 3302,
      "##غطاء": 3303,
      "يصرخ": 3304,
      "##ابقين": 3305,
      "وتت": 3306,
      "محت": 3307,
      "يمسكان": 3308,
      "##لماني": 3309,
      "ثوبًا": 3310,
      "مزيف": 3311,
      "موهوك": 3312,
      "بأيدي": 3313,
      "معطفا": 3314,
      "تجاه": 3315,
      "الأشقر": 3316,
      "مصاصة": 3317,
      "وراءها": 3318,
      "يهبط": 3319,
      "##هيئ": 3320,
      "يبكي": 3321,
      "ليلاً": 3322,
      "المشجع": 3323,
      "تستلقي": 3324,
      "الموهوك": 3325,
      "آسيويان": 3326,
      "يتجولون": 3327,
      "يضحكان": 3328,
      "درجات": 3329,
      "يتسابقون": 3330,
      "ذهبية": 3331,
      "كتابا": 3332,
      "أوباما": 3333,
      "يحتفل": 3334,
      "استو": 3335,
      "المغطى": 3336,
      "النافورة": 3337,
      "مغلقة": 3338,
      "##نشق": 3339,
      "##هربائي": 3340,
      "يلوحون": 3341,
      "فارغة": 3342,
      "يكمن": 3343,
      "##لاحظ": 3344,
      "جميع": 3345,
      "مضاءة": 3346,
      "المنافسة": 3347,
      "الخشبية": 3348,
      "البقالة": 3349,
      "بلوزة": 3350,
      "ضبابية": 3351,
      "أسنانه": 3352,
      "منافسة": 3353,
      "الأماكن": 3354,
      "الرشاشات": 3355,
      "اتجاه": 3356,
      "علامات": 3357,
      "صنبور": 3358,
      "ضابط": 3359,
      "آلات": 3360,
      "ألق": 3361,
      "أدوات": 3362,
      "اس": 3363,
      "اح": 3364,
      "بند": 3365,
      "بائع": 3366,
      "تك": 3367,
      "تف": 3368,
      "تميل": 3369,
      "تلبس": 3370,
      "توجد": 3371,
      "تغطي": 3372,
      "جس": 3373,
      "جولة": 3374,
      "حرج": 3375,
      "حديد": 3376,
      "سور": 3377,
      "سيد": 3378,
      "سمراء": 3379,
      "طرف": 3380,
      "طلاء": 3381,
      "ظل": 3382,
      "عمي": 3383,
      "عاري": 3384,
      "غابات": 3385,
      "غريب": 3386,
      "فنان": 3387,
      "قلادة": 3388,
      "كام": 3389,
      "كوخ": 3390,
      "لو": 3391,
      "للعب": 3392,
      "معب": 3393,
      "ملا": 3394,
      "ميا": 3395,
      "مرج": 3396,
      "مزلق": 3397,
      "ون": 3398,
      "وط": 3399,
      "ووش": 3400,
      "يشبه": 3401,
      "يهاجم": 3402,
      "##وهر": 3403,
      "##جبي": 3404,
      "##جعة": 3405,
      "##جمة": 3406,
      "##يشة": 3407,
      "##نفس": 3408,
      "##نقل": 3409,
      "##نوبر": 3410,
      "##اولات": 3411,
      "##سو": 3412,
      "##تي": 3413,
      "##دراج": 3414,
      "##هري": 3415,
      "##ضاريس": 3416,
      "##خة": 3417,
      "##خيل": 3418,
      "##طع": 3419,
      "##صف": 3420,
      "##بز": 3421,
      "##بها": 3422,
      "##ثر": 3423,
      "##ظلات": 3424,
      "##زمة": 3425,
      "##كلاب": 3426,
      "##كلة": 3427,
      "##كاس": 3428,
      "##ذه": 3429,
      "##ذاذ": 3430,
      "الرا": 3431,
      "الوج": 3432,
      "منش": 3433,
      "منها": 3434,
      "منديل": 3435,
      "يرعى": 3436,
      "يرفرف": 3437,
      "##اريط": 3438,
      "الما": 3439,
      "المض": 3440,
      "الملون": 3441,
      "##ماع": 3442,
      "##مامات": 3443,
      "الأحذية": 3444,
      "الأطواق": 3445,
      "##راز": 3446,
      "الشجر": 3447,
      "بالق": 3448,
      "بالش": 3449,
      "بالف": 3450,
      "بالوقوف": 3451,
      "بالكتابات": 3452,
      "يتكل": 3453,
      "##ريط": 3454,
      "##ريحة": 3455,
      "العالي": 3456,
      "العلوي": 3457,
      "الصاف": 3458,
      "الصخرية": 3459,
      "الصودا": 3460,
      "البناء": 3461,
      "التع": 3462,
      "الثيران": 3463,
      "القا": 3464,
      "القدي": 3465,
      "##عضاء": 3466,
      "##ورس": 3467,
      "##دمون": 3468,
      "يمين": 3469,
      "الحلبة": 3470,
      "الحكم": 3471,
      "واد": 3472,
      "واسع": 3473,
      "لامرأة": 3474,
      "وأزرق": 3475,
      "النجاة": 3476,
      "النبيذ": 3477,
      "يقومان": 3478,
      "مسدس": 3479,
      "مقرّ": 3480,
      "بيج": 3481,
      "##قبعات": 3482,
      "##ليب": 3483,
      "المتجر": 3484,
      "المتجول": 3485,
      "##خضراء": 3486,
      "الزلا": 3487,
      "راس": 3488,
      "جدارية": 3489,
      "تتحرك": 3490,
      "بحركة": 3491,
      "راكبو": 3492,
      "##واد": 3493,
      "البيرة": 3494,
      "مرمى": 3495,
      "تقفزان": 3496,
      "تقبيل": 3497,
      "ورديّة": 3498,
      "متسلقي": 3499,
      "يراقبه": 3500,
      "بأك": 3501,
      "تمشيان": 3502,
      "ذراعي": 3503,
      "ذراعها": 3504,
      "قفازات": 3505,
      "الاسمنت": 3506,
      "الإناث": 3507,
      "دربزون": 3508,
      "وطفلين": 3509,
      "يغني": 3510,
      "يرفعون": 3511,
      "خيول": 3512,
      "نفسها": 3513,
      "الأسلاك": 3514,
      "عملاقة": 3515,
      "المقوى": 3516,
      "يضحكون": 3517,
      "الرياضي": 3518,
      "تغني": 3519,
      "بالحبال": 3520,
      "المتسابقين": 3521,
      "شتوي": 3522,
      "موسيقي": 3523,
      "بإصبع": 3524,
      "منزلقة": 3525,
      "يتنافسان": 3526,
      "سكوتر": 3527,
      "وتنورة": 3528,
      "حضن": 3529,
      "كوبًا": 3530,
      "الاستحمام": 3531,
      "وواحدة": 3532,
      "لمسافات": 3533,
      "ركاب": 3534,
      "يواجهان": 3535,
      "الأحادية": 3536,
      "بالكرات": 3537,
      "دوامة": 3538,
      "بالصحن": 3539,
      "ويسير": 3540,
      "الخطوات": 3541,
      "لديهم": 3542,
      "طوافة": 3543,
      "حرجية": 3544,
      "ميامي": 3545,
      "##وهرات": 3546,
      "الوجوه": 3547,
      "مقرّبة": 3548,
      "أفق": 3549,
      "أناس": 3550,
      "أمريكية": 3551,
      "أعضاء": 3552,
      "إصبع": 3553,
      "إطفاء": 3554,
      "امام": 3555,
      "احمر": 3556,
      "انع": 3557,
      "بهم": 3558,
      "ببط": 3559,
      "تُ": 3560,
      "تناول": 3561,
      "تهرول": 3562,
      "جناح": 3563,
      "حصيرة": 3564,
      "خد": 3565,
      "خروف": 3566,
      "دفع": 3567,
      "دائرة": 3568,
      "رف": 3569,
      "ركب": 3570,
      "رداء": 3571,
      "رسمي": 3572,
      "رقيق": 3573,
      "سير": 3574,
      "سبعة": 3575,
      "سيف": 3576,
      "سيدات": 3577,
      "شديد": 3578,
      "عامة": 3579,
      "عامل": 3580,
      "عسكري": 3581,
      "قريبة": 3582,
      "قبلة": 3583,
      "كامل": 3584,
      "للج": 3585,
      "لطفل": 3586,
      "لصبي": 3587,
      "لبيع": 3588,
      "نا": 3589,
      "وز": 3590,
      "وكرة": 3591,
      "وغطاء": 3592,
      "ياب": 3593,
      "يبيع": 3594,
      "##وشة": 3595,
      "##جب": 3596,
      "##نز": 3597,
      "##ندي": 3598,
      "##نوع": 3599,
      "##سورة": 3600,
      "##رز": 3601,
      "##تر": 3602,
      "##تون": 3603,
      "##دها": 3604,
      "##دفع": 3605,
      "##هار": 3606,
      "##ضواء": 3607,
      "##لل": 3608,
      "##لكت": 3609,
      "##حاب": 3610,
      "##خي": 3611,
      "##خط": 3612,
      "##بوط": 3613,
      "##قرا": 3614,
      "##ثم": 3615,
      "##زان": 3616,
      "##شارة": 3617,
      "السود": 3618,
      "الخص": 3619,
      "الوسط": 3620,
      "##الات": 3621,
      "يرفس": 3622,
      "يرمون": 3623,
      "##ارقة": 3624,
      "المبار": 3625,
      "المفت": 3626,
      "المصارع": 3627,
      "##قفازات": 3628,
      "##ماك": 3629,
      "معاطف": 3630,
      "##راً": 3631,
      "الشابة": 3632,
      "الشموع": 3633,
      "يتناول": 3634,
      "يتنقل": 3635,
      "##لقاء": 3636,
      "##ابور": 3637,
      "طفلها": 3638,
      "##راجيح": 3639,
      "العين": 3640,
      "السكة": 3641,
      "السائق": 3642,
      "السلام": 3643,
      "##وقد": 3644,
      "الصنوبر": 3645,
      "البخ": 3646,
      "ترت": 3647,
      "##خرف": 3648,
      "##خرطوم": 3649,
      "مجداف": 3650,
      "القضبان": 3651,
      "يحملن": 3652,
      "الخيام": 3653,
      "والح": 3654,
      "والحمراء": 3655,
      "والناس": 3656,
      "والنساء": 3657,
      "الجرف": 3658,
      "الجمال": 3659,
      "الجمهور": 3660,
      "الجمباز": 3661,
      "الحركة": 3662,
      "بجعة": 3663,
      "برميل": 3664,
      "الدرابزين": 3665,
      "وأس": 3666,
      "الفم": 3667,
      "لعبته": 3668,
      "النباتات": 3669,
      "بعضهن": 3670,
      "ويم": 3671,
      "ويق": 3672,
      "ويضحك": 3673,
      "للر": 3674,
      "تساعد": 3675,
      "يشق": 3676,
      "الزفاف": 3677,
      "الغوص": 3678,
      "يستع": 3679,
      "يستند": 3680,
      "##أسه": 3681,
      "تتع": 3682,
      "تتظاهر": 3683,
      "والأخضر": 3684,
      "يجعل": 3685,
      "منحدرًا": 3686,
      "وجود": 3687,
      "وجبة": 3688,
      "خلفهم": 3689,
      "تحتوي": 3690,
      "تمارس": 3691,
      "وتضحك": 3692,
      "البيج": 3693,
      "جبلي": 3694,
      "محف": 3695,
      "يأكلون": 3696,
      "##احلة": 3697,
      "مركز": 3698,
      "متزلجين": 3699,
      "تقدم": 3700,
      "البرية": 3701,
      "مزينة": 3702,
      "##اقطة": 3703,
      "ثلجيًا": 3704,
      "بأيديهم": 3705,
      "##اكهة": 3706,
      "الشخصان": 3707,
      "رماديًا": 3708,
      "##ضيء": 3709,
      "يأخذون": 3710,
      "مطاط": 3711,
      "بشجرة": 3712,
      "تنظران": 3713,
      "حبلًا": 3714,
      "الهند": 3715,
      "بالغين": 3716,
      "بذراع": 3717,
      "بالأوراق": 3718,
      "بالألعاب": 3719,
      "الريف": 3720,
      "بنطلون": 3721,
      "زحافات": 3722,
      "زحلوقة": 3723,
      "##نانير": 3724,
      "زجاجية": 3725,
      "المدارس": 3726,
      "المدخل": 3727,
      "المقعد": 3728,
      "المقدمة": 3729,
      "جلوس": 3730,
      "يمارسون": 3731,
      "يحتوي": 3732,
      "صندوقًا": 3733,
      "جذوع": 3734,
      "بلوح": 3735,
      "مخططا": 3736,
      "بالمظلات": 3737,
      "المصارعة": 3738,
      "ويبتسمون": 3739,
      "يقاتل": 3740,
      "البحرية": 3741,
      "حديدية": 3742,
      "مستلقية": 3743,
      "أذن": 3744,
      "المختلفة": 3745,
      "يعبرون": 3746,
      "الزحليقة": 3747,
      "يجتمعون": 3748,
      "متعدد": 3749,
      "ريفي": 3750,
      "سنارة": 3751,
      "منقوشة": 3752,
      "بالونات": 3753,
      "للمشاة": 3754,
      "يعانقان": 3755,
      "##رافية": 3756,
      "أقدام": 3757,
      "الأقدام": 3758,
      "الداكنة": 3759,
      "كتفه": 3760,
      "قاعة": 3761,
      "##وافذ": 3762,
      "المنازل": 3763,
      "البلاستيك": 3764,
      "المعدات": 3765,
      "محشو": 3766,
      "محشوة": 3767,
      "قذر": 3768,
      "وحده": 3769,
      "يداعب": 3770,
      "عامود": 3771,
      "مؤخرة": 3772,
      "جريدة": 3773,
      "مرقط": 3774,
      "أنيقة": 3775,
      "سعيد": 3776,
      "جزئ": 3777,
      "صوراً": 3778,
      "كيفية": 3779,
      "الفساتين": 3780,
      "احتف": 3781,
      "بندقية": 3782,
      "تفاحة": 3783,
      "كامير": 3784,
      "مزلقة": 3785,
      "المضمار": 3786,
      "انعكاس": 3787,
      "##لكترون": 3788,
      "bm": 3789,
      "أيدي": 3790,
      "إسمنت": 3791,
      "ازرق": 3792,
      "ابتس": 3793,
      "بيرة": 3794,
      "بمس": 3795,
      "ترق": 3796,
      "تواجه": 3797,
      "تكتب": 3798,
      "ثمان": 3799,
      "جمل": 3800,
      "حبال": 3801,
      "حلوى": 3802,
      "خبز": 3803,
      "دمية": 3804,
      "ذيل": 3805,
      "ذلك": 3806,
      "ربط": 3807,
      "زميل": 3808,
      "سق": 3809,
      "سوية": 3810,
      "سلالم": 3811,
      "شع": 3812,
      "شباب": 3813,
      "صدر": 3814,
      "عش": 3815,
      "عار": 3816,
      "عمل": 3817,
      "قن": 3818,
      "كهف": 3819,
      "لج": 3820,
      "للب": 3821,
      "للا": 3822,
      "مما": 3823,
      "متق": 3824,
      "مرف": 3825,
      "ممسك": 3826,
      "نمر": 3827,
      "نفخ": 3828,
      "هم": 3829,
      "وص": 3830,
      "وتق": 3831,
      "وكل": 3832,
      "يكتب": 3833,
      "##وين": 3834,
      "##وكة": 3835,
      "##واجز": 3836,
      "##جيل": 3837,
      "##يوم": 3838,
      "##يقة": 3839,
      "##يته": 3840,
      "##نعة": 3841,
      "##اض": 3842,
      "##اعات": 3843,
      "##سوم": 3844,
      "##تعة": 3845,
      "##تهما": 3846,
      "##دلى": 3847,
      "##دار": 3848,
      "##حم": 3849,
      "##حيط": 3850,
      "##حبان": 3851,
      "##خلف": 3852,
      "##طم": 3853,
      "##طق": 3854,
      "##طابقة": 3855,
      "##بب": 3856,
      "##بدو": 3857,
      "##قاق": 3858,
      "##ثلان": 3859,
      "##كور": 3860,
      "##شاهدة": 3861,
      "اللب": 3862,
      "فيه": 3863,
      "##اره": 3864,
      "المغ": 3865,
      "المال": 3866,
      "المقا": 3867,
      "##لاة": 3868,
      "##ماعية": 3869,
      "##اتهم": 3870,
      "الأر": 3871,
      "الأب": 3872,
      "الأربعة": 3873,
      "##راد": 3874,
      "الكريس": 3875,
      "الكمامات": 3876,
      "صبية": 3877,
      "##ولو": 3878,
      "الشا": 3879,
      "الشرفة": 3880,
      "يتهيئ": 3881,
      "##ملوء": 3882,
      "##ميك": 3883,
      "صغيرا": 3884,
      "العام": 3885,
      "العالية": 3886,
      "العائلة": 3887,
      "##هوة": 3888,
      "الرجبي": 3889,
      "الصف": 3890,
      "البارد": 3891,
      "التو": 3892,
      "التد": 3893,
      "التلفزيون": 3894,
      "التنانير": 3895,
      "ترف": 3896,
      "ترسم": 3897,
      "الطبيع": 3898,
      "القماش": 3899,
      "يحمله": 3900,
      "##طفئ": 3901,
      "أمامها": 3902,
      "ينطلق": 3903,
      "##باح": 3904,
      "##باك": 3905,
      "##باشير": 3906,
      "فوقه": 3907,
      "يقدم": 3908,
      "يركبن": 3909,
      "##رجواني": 3910,
      "والر": 3911,
      "والث": 3912,
      "والش": 3913,
      "والطفل": 3914,
      "والفتاة": 3915,
      "الجيش": 3916,
      "الدجاج": 3917,
      "النظر": 3918,
      "النخيل": 3919,
      "النورس": 3920,
      "##اجر": 3921,
      "متج": 3922,
      "متوسط": 3923,
      "متجول": 3924,
      "متطابقة": 3925,
      "ويط": 3926,
      "مستدي": 3927,
      "مسرح": 3928,
      "##كبوت": 3929,
      "للس": 3930,
      "للص": 3931,
      "للكرة": 3932,
      "للتص": 3933,
      "للوصول": 3934,
      "##اهدين": 3935,
      "مقيد": 3936,
      "يتسوق": 3937,
      "##ليدية": 3938,
      "اللونين": 3939,
      "تنحني": 3940,
      "يسترد": 3941,
      "سباح": 3942,
      "ذوي": 3943,
      "تتدلى": 3944,
      "بحلقة": 3945,
      "يجر": 3946,
      "##سكرية": 3947,
      "يصب": 3948,
      "يصطف": 3949,
      "يتزلجان": 3950,
      "##نسان": 3951,
      "الذكور": 3952,
      "طريقه": 3953,
      "وتع": 3954,
      "وشعر": 3955,
      "يعالج": 3956,
      "تسيران": 3957,
      "بأشجار": 3958,
      "كرنفال": 3959,
      "اللوح": 3960,
      "اللحية": 3961,
      "بمقبض": 3962,
      "يستعدان": 3963,
      "قفاز": 3964,
      "تلوح": 3965,
      "يأخذان": 3966,
      "جانبها": 3967,
      "تركبان": 3968,
      "بشقلبة": 3969,
      "كتلة": 3970,
      "الياب": 3971,
      "اليمن": 3972,
      "الاس": 3973,
      "الامواج": 3974,
      "بقدم": 3975,
      "يقودان": 3976,
      "لركوب": 3977,
      "يبتعد": 3978,
      "المطعم": 3979,
      "تصل": 3980,
      "وطفلة": 3981,
      "##تداء": 3982,
      "بذلات": 3983,
      "بالأعلام": 3984,
      "##نبوب": 3985,
      "المشاة": 3986,
      "المشاهدين": 3987,
      "##طيخ": 3988,
      "زلاجات": 3989,
      "ينتظران": 3990,
      "ساقه": 3991,
      "تتحدثان": 3992,
      "ينفذ": 3993,
      "وملابس": 3994,
      "المقود": 3995,
      "وينظرون": 3996,
      "##وشم": 3997,
      "##وشحة": 3998,
      "##لاكمان": 3999,
      "رشاش": 4000,
      "أنفها": 4001,
      "كانت": 4002,
      "استعداد": 4003,
      "بالحصى": 4004,
      "حديث": 4005,
      "جنبًا": 4006,
      "مراهقة": 4007,
      "مربوط": 4008,
      "جالسين": 4009,
      "الكرسي": 4010,
      "سكني": 4011,
      "سناً": 4012,
      "مهرجان": 4013,
      "فمها": 4014,
      "عينيه": 4015,
      "الهاوية": 4016,
      "غيتارًا": 4017,
      "الآسيويين": 4018,
      "##رائط": 4019,
      "وجوههم": 4020,
      "احتجاج": 4021,
      "الأصدقاء": 4022,
      "الحقول": 4023,
      "الحقائب": 4024,
      "حجرية": 4025,
      "مبلل": 4026,
      "يمتثل": 4027,
      "البلوز": 4028,
      "ويجلسون": 4029,
      "وبرتقالي": 4030,
      "كثيفة": 4031,
      "نوعان": 4032,
      "ثوباً": 4033,
      "المزدحم": 4034,
      "خصرها": 4035,
      "شراعية": 4036,
      "عازف": 4037,
      "ووشاح": 4038,
      "##دراجات": 4039,
      "منشفة": 4040,
      "الزلاجات": 4041,
      "bmx": 4042,
      "ثمانية": 4043,
      "المقاود": 4044,
      "الكريسماس": 4045,
      "اليمنى": 4046,
      "أط": 4047,
      "أور": 4048,
      "أمه": 4049,
      "أداء": 4050,
      "أعمدة": 4051,
      "أشياء": 4052,
      "أيض": 4053,
      "إشارة": 4054,
      "بغ": 4055,
      "بان": 4056,
      "بلون": 4057,
      "بناء": 4058,
      "ته": 4059,
      "جر": 4060,
      "حذ": 4061,
      "حلق": 4062,
      "حمل": 4063,
      "حتى": 4064,
      "خش": 4065,
      "خلوي": 4066,
      "دون": 4067,
      "رمال": 4068,
      "رذاذ": 4069,
      "زهري": 4070,
      "صلبة": 4071,
      "صياد": 4072,
      "ضفاف": 4073,
      "ضحلة": 4074,
      "طارة": 4075,
      "طينية": 4076,
      "عظ": 4077,
      "غائم": 4078,
      "فن": 4079,
      "فقط": 4080,
      "قلي": 4081,
      "لوجه": 4082,
      "مبا": 4083,
      "موقع": 4084,
      "نطاط": 4085,
      "وتس": 4086,
      "وقبعات": 4087,
      "يمي": 4088,
      "يوجه": 4089,
      "يفحص": 4090,
      "##وتان": 4091,
      "##جموعة": 4092,
      "##نين": 4093,
      "##ندية": 4094,
      "##نقا": 4095,
      "##نكبوت": 4096,
      "##توك": 4097,
      "##ضان": 4098,
      "##مم": 4099,
      "##طر": 4100,
      "##صن": 4101,
      "##صير": 4102,
      "##بس": 4103,
      "##باط": 4104,
      "##ببة": 4105,
      "##ئي": 4106,
      "##ئز": 4107,
      "##قرة": 4108,
      "##قصة": 4109,
      "##ثار": 4110,
      "##ظيف": 4111,
      "##كه": 4112,
      "##كيل": 4113,
      "##في": 4114,
      "##فاه": 4115,
      "##TV": 4116,
      "الو": 4117,
      "الات": 4118,
      "فيل": 4119,
      "منا": 4120,
      "##اراث": 4121,
      "المم": 4122,
      "المل": 4123,
      "المظ": 4124,
      "الميت": 4125,
      "الموقد": 4126,
      "##ينجا": 4127,
      "##عبان": 4128,
      "##لاف": 4129,
      "الألماني": 4130,
      "##راة": 4131,
      "##راقة": 4132,
      "الكتب": 4133,
      "الكنيسة": 4134,
      "الكهربائي": 4135,
      "الشرق": 4136,
      "الشباك": 4137,
      "بالن": 4138,
      "بالد": 4139,
      "بالهو": 4140,
      "بالوردي": 4141,
      "يتفق": 4142,
      "يتوقف": 4143,
      "يتوازن": 4144,
      "يتفاع": 4145,
      "يتلاعب": 4146,
      "يتطلع": 4147,
      "##ناديق": 4148,
      "##نادل": 4149,
      "##لقى": 4150,
      "##لقون": 4151,
      "##ريعة": 4152,
      "العد": 4153,
      "العم": 4154,
      "العار": 4155,
      "العمال": 4156,
      "العريس": 4157,
      "العامة": 4158,
      "العنكبوت": 4159,
      "##نيم": 4160,
      "يحرس": 4161,
      "##مويه": 4162,
      "السقف": 4163,
      "السفل": 4164,
      "السلم": 4165,
      "يسد": 4166,
      "يسابق": 4167,
      "يسلم": 4168,
      "يسحبان": 4169,
      "الرح": 4170,
      "الرغ": 4171,
      "الرسم": 4172,
      "الرطبة": 4173,
      "الباب": 4174,
      "البطيخ": 4175,
      "##ائز": 4176,
      "التجديف": 4177,
      "تركل": 4178,
      "##اطس": 4179,
      "بينهما": 4180,
      "الطويلة": 4181,
      "الطلاء": 4182,
      "مجرفة": 4183,
      "القوس": 4184,
      "القطب": 4185,
      "##ورات": 4186,
      "الخور": 4187,
      "يمكن": 4188,
      "يقذف": 4189,
      "يقضم": 4190,
      "والط": 4191,
      "والسوداء": 4192,
      "والزهور": 4193,
      "الحش": 4194,
      "الحجارة": 4195,
      "الحجاب": 4196,
      "الدخول": 4197,
      "الدنيم": 4198,
      "##بلل": 4199,
      "تحصل": 4200,
      "##ضرية": 4201,
      "وأخضر": 4202,
      "##مسة": 4203,
      "بعضا": 4204,
      "متحف": 4205,
      "ويع": 4206,
      "ويشرب": 4207,
      "ويصنع": 4208,
      "للن": 4209,
      "للدراجات": 4210,
      "كبيرتان": 4211,
      "لاعبة": 4212,
      "بيئة": 4213,
      "بيكيني": 4214,
      "يطبخ": 4215,
      "الزوار": 4216,
      "الزاوية": 4217,
      "راقص": 4218,
      "يستنشق": 4219,
      "تتكئ": 4220,
      "خارجي": 4221,
      "والأرجواني": 4222,
      "يرتاح": 4223,
      "الجلوس": 4224,
      "وتقف": 4225,
      "وتقفز": 4226,
      "محل": 4227,
      "المرآة": 4228,
      "يسبحون": 4229,
      "الآلات": 4230,
      "بخوذة": 4231,
      "ماك": 4232,
      "نحوه": 4233,
      "تقلع": 4234,
      "تقاطع": 4235,
      "##يهية": 4236,
      "قاربه": 4237,
      "مزهر": 4238,
      "مزمار": 4239,
      "موتوك": 4240,
      "بأوراق": 4241,
      "تجدف": 4242,
      "الفتيان": 4243,
      "الفتاتان": 4244,
      "اللوات": 4245,
      "بمظلة": 4246,
      "بمنش": 4247,
      "مختلف": 4248,
      "مخالب": 4249,
      "##دفق": 4250,
      "مصور": 4251,
      "مصنوع": 4252,
      "وراءهما": 4253,
      "تعليق": 4254,
      "مطلي": 4255,
      "##وتوغ": 4256,
      "يتجه": 4257,
      "أصل": 4258,
      "##فقاعات": 4259,
      "برتقاليًا": 4260,
      "##ندق": 4261,
      "طوقا": 4262,
      "الاسود": 4263,
      "الاحمر": 4264,
      "بقعة": 4265,
      "بقالة": 4266,
      "قطع": 4267,
      "تشكيل": 4268,
      "الإطار": 4269,
      "ورجلين": 4270,
      "نظرة": 4271,
      "##كتابة": 4272,
      "تصط": 4273,
      "تصنع": 4274,
      "تصرخ": 4275,
      "حجاب": 4276,
      "بطنه": 4277,
      "ليس": 4278,
      "يغنون": 4279,
      "يصطادان": 4280,
      "بالأبيض": 4281,
      "وقميصاً": 4282,
      "الريش": 4283,
      "##يديو": 4284,
      "زجاجي": 4285,
      "يعزفون": 4286,
      "خطوات": 4287,
      "يشربان": 4288,
      "أفراد": 4289,
      "##هبوط": 4290,
      "ويحملون": 4291,
      "تجمعوا": 4292,
      "المعاطف": 4293,
      "المعيشة": 4294,
      "ملط": 4295,
      "##فرجين": 4296,
      "بسحب": 4297,
      "مضغ": 4298,
      "حيوانات": 4299,
      "حيوانًا": 4300,
      "باتمان": 4301,
      "##تفاع": 4302,
      "الأعلى": 4303,
      "بعيدًا": 4304,
      "الموسيقي": 4305,
      "بلدة": 4306,
      "ولحية": 4307,
      "قناعا": 4308,
      "البالون": 4309,
      "تغرب": 4310,
      "بالمظلة": 4311,
      "ويبتسمان": 4312,
      "المتساقطة": 4313,
      "يقاتلان": 4314,
      "عنقه": 4315,
      "الضوء": 4316,
      "اشقر": 4317,
      "مستلقٍ": 4318,
      "بيده": 4319,
      "بيدها": 4320,
      "ثيابا": 4321,
      "بإعداد": 4322,
      "مغلق": 4323,
      "لمشاهدة": 4324,
      "##واحي": 4325,
      "يتعانقان": 4326,
      "يتنافسون": 4327,
      "مرتديا": 4328,
      "واثنان": 4329,
      "ويقفون": 4330,
      "الآسيوية": 4331,
      "##بقار": 4332,
      "##لاحق": 4333,
      "السترات": 4334,
      "وجينزًا": 4335,
      "شابين": 4336,
      "مشروبًا": 4337,
      "قدميها": 4338,
      "##ناثر": 4339,
      "والعريس": 4340,
      "مراهقين": 4341,
      "الهاد": 4342,
      "ليلتقط": 4343,
      "بالعصي": 4344,
      "بالطين": 4345,
      "القطبين": 4346,
      "وتبتسمان": 4347,
      "أجهزة": 4348,
      "عقد": 4349,
      "##حفظة": 4350,
      "البلاستيكية": 4351,
      "الآسيويات": 4352,
      "شرقية": 4353,
      "ضبابي": 4354,
      "واقفة": 4355,
      "الأصغر": 4356,
      "وترتدي": 4357,
      "تصويره": 4358,
      "الخروج": 4359,
      "يتشارك": 4360,
      "سيارته": 4361,
      "أعلامًا": 4362,
      "رؤوسهم": 4363,
      "ويتحدثان": 4364,
      "صافرة": 4365,
      "##مدد": 4366,
      "المدرسي": 4367,
      "المدرسة": 4368,
      "سحابة": 4369,
      "سقطت": 4370,
      "ويحاول": 4371,
      "بفمه": 4372,
      "صعودا": 4373,
      "بقطعة": 4374,
      "##تزا": 4375,
      "أسمنتي": 4376,
      "محترف": 4377,
      "يمينه": 4378,
      "المتجولين": 4379,
      "بإصبعه": 4380,
      "##خييم": 4381,
      "جزئيا": 4382,
      "ابتسامة": 4383,
      "ترفيهية": 4384,
      "مستديرة": 4385,
      "خشنة": 4386,
      "مباشرة": 4387,
      "##اراثون": 4388,
      "موتوكروس": 4389,
      "اللواتي": 4390,
      "ATV": 4391,
      "أخذ": 4392,
      "أضواء": 4393,
      "إسع": 4394,
      "إلكترون": 4395,
      "اال": 4396,
      "اسود": 4397,
      "ابيض": 4398,
      "ارج": 4399,
      "ابن": 4400,
      "بري": 4401,
      "بتد": 4402,
      "بخرطوم": 4403,
      "تأ": 4404,
      "تلف": 4405,
      "تاج": 4406,
      "تعبي": 4407,
      "تجار": 4408,
      "ترامبولين": 4409,
      "تغطية": 4410,
      "تحدق": 4411,
      "جاه": 4412,
      "جوا": 4413,
      "حريق": 4414,
      "حشرة": 4415,
      "حضرية": 4416,
      "دور": 4417,
      "روب": 4418,
      "ركض": 4419,
      "زب": 4420,
      "زقاق": 4421,
      "سون": 4422,
      "سلال": 4423,
      "سلوق": 4424,
      "شير": 4425,
      "شمس": 4426,
      "شقلبة": 4427,
      "شديدة": 4428,
      "صال": 4429,
      "ضاح": 4430,
      "ضباط": 4431,
      "طير": 4432,
      "طائ": 4433,
      "طعام": 4434,
      "طاولات": 4435,
      "طابور": 4436,
      "ظلية": 4437,
      "عري": 4438,
      "عشب": 4439,
      "عمال": 4440,
      "عائق": 4441,
      "عيدان": 4442,
      "عروس": 4443,
      "غز": 4444,
      "فر": 4445,
      "فوض": 4446,
      "قيد": 4447,
      "قاع": 4448,
      "لتص": 4449,
      "لجلب": 4450,
      "لشيء": 4451,
      "للاست": 4452,
      "لبعض": 4453,
      "ميد": 4454,
      "مدف": 4455,
      "موحلة": 4456,
      "مملوء": 4457,
      "نصف": 4458,
      "هز": 4459,
      "هؤ": 4460,
      "هوب": 4461,
      "هلي": 4462,
      "وإ": 4463,
      "وسود": 4464,
      "ودراجة": 4465,
      "يف": 4466,
      "يبر": 4467,
      "يوقف": 4468,
      "##وّ": 4469,
      "##جري": 4470,
      "##جنحة": 4471,
      "##يماء": 4472,
      "##نط": 4473,
      "##نك": 4474,
      "##نطة": 4475,
      "##اور": 4476,
      "##عون": 4477,
      "##رم": 4478,
      "##تمام": 4479,
      "##مق": 4480,
      "##مز": 4481,
      "##مدة": 4482,
      "##حق": 4483,
      "##حوان": 4484,
      "##خين": 4485,
      "##بت": 4486,
      "##ئية": 4487,
      "##ظيرة": 4488,
      "##زلاق": 4489,
      "##شرطة": 4490,
      "##فارقة": 4491,
      "##غني": 4492,
      "##غيل": 4493,
      "##ذي": 4494,
      "الفل": 4495,
      "الوشم": 4496,
      "##انو": 4497,
      "##جليد": 4498,
      "المه": 4499,
      "المرف": 4500,
      "المارة": 4501,
      "المكت": 4502,
      "الموحل": 4503,
      "المقل": 4504,
      "##مرين": 4505,
      "##ينيات": 4506,
      "##لاهما": 4507,
      "##مادي": 4508,
      "الأراجيح": 4509,
      "الأنبوب": 4510,
      "الأبقار": 4511,
      "الأفارقة": 4512,
      "##راحة": 4513,
      "الكأس": 4514,
      "الشرف": 4515,
      "الشاح": 4516,
      "الشقراء": 4517,
      "باللعب": 4518,
      "بالزهور": 4519,
      "بالفقاعات": 4520,
      "يتث": 4521,
      "يتكئ": 4522,
      "يتلاكمان": 4523,
      "##ناه": 4524,
      "##ميد": 4525,
      "صغيراً": 4526,
      "##نيه": 4527,
      "السيط": 4528,
      "الساخ": 4529,
      "السلامة": 4530,
      "السريع": 4531,
      "يسرع": 4532,
      "شخصًا": 4533,
      "الصدر": 4534,
      "البو": 4535,
      "البع": 4536,
      "البوابة": 4537,
      "البولين": 4538,
      "##ائين": 4539,
      "##ائدة": 4540,
      "التذ": 4541,
      "التبن": 4542,
      "الطراز": 4543,
      "القربة": 4544,
      "القريبة": 4545,
      "القيادة": 4546,
      "القتال": 4547,
      "القهوة": 4548,
      "يندفع": 4549,
      "الخوذات": 4550,
      "##تسامة": 4551,
      "##دمى": 4552,
      "ثلاثي": 4553,
      "يقع": 4554,
      "##ومين": 4555,
      "والماء": 4556,
      "والبرتقال": 4557,
      "والصفراء": 4558,
      "والرجل": 4559,
      "حقيب": 4560,
      "الجرو": 4561,
      "الجافة": 4562,
      "الجسم": 4563,
      "الحلوى": 4564,
      "بجدار": 4565,
      "برأسه": 4566,
      "الفاكهة": 4567,
      "##وجيه": 4568,
      "النقل": 4569,
      "النوافذ": 4570,
      "##مساح": 4571,
      "##يلاء": 4572,
      "ويه": 4573,
      "ويص": 4574,
      "ويأكل": 4575,
      "ويبدو": 4576,
      "##كبة": 4577,
      "##كبات": 4578,
      "للطي": 4579,
      "للخلف": 4580,
      "مقنع": 4581,
      "تسقط": 4582,
      "بيديه": 4583,
      "يتسلل": 4584,
      "المترو": 4585,
      "المتاجر": 4586,
      "يشجع": 4587,
      "الزورق": 4588,
      "الزاهية": 4589,
      "الغولف": 4590,
      "راقصة": 4591,
      "المحنطة": 4592,
      "تنزل": 4593,
      "جدًا": 4594,
      "يدافع": 4595,
      "تتمدد": 4596,
      "برتقاليا": 4597,
      "بحقيبة": 4598,
      "يرتد": 4599,
      "يمرون": 4600,
      "وجها": 4601,
      "##ويب": 4602,
      "الجلد": 4603,
      "##اخذ": 4604,
      "##سرى": 4605,
      "البيانو": 4606,
      "شعره": 4607,
      "محشي": 4608,
      "محيط": 4609,
      "وقط": 4610,
      "##ادث": 4611,
      "##ادات": 4612,
      "الطفلان": 4613,
      "نحلة": 4614,
      "وكلبه": 4615,
      "أنه": 4616,
      "##راعيه": 4617,
      "مرح": 4618,
      "مرآة": 4619,
      "يحاولان": 4620,
      "مادة": 4621,
      "تقاتل": 4622,
      "##يتي": 4623,
      "الطائرات": 4624,
      "وفت": 4625,
      "وفمه": 4626,
      "##اقات": 4627,
      "وبقرة": 4628,
      "##كوبتر": 4629,
      "معطفًا": 4630,
      "##طاردة": 4631,
      "المنصة": 4632,
      "بملابس": 4633,
      "بمقود": 4634,
      "مكونة": 4635,
      "مخاريط": 4636,
      "عالٍ": 4637,
      "ركوبه": 4638,
      "##فتات": 4639,
      "تلمس": 4640,
      "المسبح": 4641,
      "مطابقة": 4642,
      "مطلية": 4643,
      "أصابع": 4644,
      "##نتها": 4645,
      "اليسرى": 4646,
      "الاوساخ": 4647,
      "وحذاء": 4648,
      "يقودون": 4649,
      "##هيب": 4650,
      "دربًا": 4651,
      "تصطف": 4652,
      "وطفلان": 4653,
      "بالغان": 4654,
      "وقميصًا": 4655,
      "المشهد": 4656,
      "جسرًا": 4657,
      "منزله": 4658,
      "المدرب": 4659,
      "يضعون": 4660,
      "يتقاتل": 4661,
      "خطوط": 4662,
      "يشربون": 4663,
      "مستنق": 4664,
      "القفزة": 4665,
      "عائم": 4666,
      "يخط": 4667,
      "يعملان": 4668,
      "حاوية": 4669,
      "عملاق": 4670,
      "آسيويين": 4671,
      "آسيويات": 4672,
      "ملصق": 4673,
      "ممز": 4674,
      "مبتسمان": 4675,
      "مبتسمتان": 4676,
      "ويركب": 4677,
      "حفنة": 4678,
      "مبتسما": 4679,
      "يتدافع": 4680,
      "وشاحاً": 4681,
      "يمارسان": 4682,
      "بعيداً": 4683,
      "##جمدة": 4684,
      "الرياضة": 4685,
      "مضربه": 4686,
      "رياضيًا": 4687,
      "قناعًا": 4688,
      "الباليه": 4689,
      "لصيد": 4690,
      "ويلعبان": 4691,
      "منعه": 4692,
      "المتسلق": 4693,
      "يتظاهران": 4694,
      "الانف": 4695,
      "قرد": 4696,
      "الضواحي": 4697,
      "المراهقون": 4698,
      "يبحثان": 4699,
      "تضحكان": 4700,
      "لتناول": 4701,
      "رقعة": 4702,
      "صورتها": 4703,
      "سحبها": 4704,
      "يتعلق": 4705,
      "يتعلم": 4706,
      "عصابة": 4707,
      "##ورديون": 4708,
      "حضنه": 4709,
      "مرتبط": 4710,
      "الاطفاء": 4711,
      "الأقحوان": 4712,
      "أفريقية": 4713,
      "حافية": 4714,
      "وكأ": 4715,
      "وكلاهما": 4716,
      "الأمامية": 4717,
      "وسروالا": 4718,
      "ويداه": 4719,
      "والعشب": 4720,
      "يشاركون": 4721,
      "يطلقون": 4722,
      "يستمتعون": 4723,
      "##وافير": 4724,
      "##ركات": 4725,
      "مقلوب": 4726,
      "ليلي": 4727,
      "المجوهرات": 4728,
      "المناطق": 4729,
      "بالطلاء": 4730,
      "أجنحة": 4731,
      "منخفضة": 4732,
      "منافس": 4733,
      "المستشف": 4734,
      "ظهورهم": 4735,
      "قذرة": 4736,
      "مبللة": 4737,
      "وحدها": 4738,
      "الخرسان": 4739,
      "خفيف": 4740,
      "خفيفة": 4741,
      "ملفوفة": 4742,
      "وابنتها": 4743,
      "وبرتقالية": 4744,
      "الملاكمة": 4745,
      "الملاكمين": 4746,
      "حاملين": 4747,
      "صاحبه": 4748,
      "المكان": 4749,
      "العشبية": 4750,
      "البدلات": 4751,
      "متعرج": 4752,
      "ويستعد": 4753,
      "أدناه": 4754,
      "كلاهما": 4755,
      "طبيعي": 4756,
      "مموهة": 4757,
      "وتتحدث": 4758,
      "استوديو": 4759,
      "عميقة": 4760,
      "لوحد": 4761,
      "ملاهي": 4762,
      "ونظ": 4763,
      "##سومات": 4764,
      "##ذهاب": 4765,
      "يتكلم": 4766,
      "القديمة": 4767,
      "ببطانية": 4768,
      "تُق": 4769,
      "##خطى": 4770,
      "العينين": 4771,
      "البخارية": 4772,
      "يستعرض": 4773,
      "كاميرته": 4774,
      "انعكاسه": 4775,
      "قناة": 4776,
      "مرفوعة": 4777,
      "الأبواب": 4778,
      "##ميكروفون": 4779,
      "والثلوج": 4780,
      "للتصوير": 4781,
      "أيضا": 4782,
      "حذائ": 4783,
      "الاتجاه": 4784,
      "بالهواء": 4785,
      "السفلي": 4786,
      "الزوارق": 4787,
      "##وتوغرافية": 4788,
      "الموسيقيين": 4789,
      "إسعاف": 4790,
      "تجاري": 4791,
      "روبوت": 4792,
      "شيرت": 4793,
      "صالون": 4794,
      "هؤلاء": 4795,
      "هليكوبتر": 4796,
      "الفلوت": 4797,
      "السيطرة": 4798,
      "المستشفى": 4799,
      "أر": 4800,
      "أوسط": 4801,
      "أرجل": 4802,
      "إطارات": 4803,
      "اخر": 4804,
      "انف": 4805,
      "اخت": 4806,
      "بمر": 4807,
      "بما": 4808,
      "بمل": 4809,
      "بكل": 4810,
      "بارد": 4811,
      "بزي": 4812,
      "بكتابات": 4813,
      "بولو": 4814,
      "تلقي": 4815,
      "تشبه": 4816,
      "تضاريس": 4817,
      "تضيء": 4818,
      "ثلوج": 4819,
      "ثعبان": 4820,
      "جلب": 4821,
      "جاف": 4822,
      "جيد": 4823,
      "جراء": 4824,
      "خفة": 4825,
      "خراف": 4826,
      "خنز": 4827,
      "خزان": 4828,
      "دي": 4829,
      "دش": 4830,
      "دف": 4831,
      "دائ": 4832,
      "دورة": 4833,
      "دومين": 4834,
      "رغ": 4835,
      "روض": 4836,
      "رمية": 4837,
      "سج": 4838,
      "سا": 4839,
      "سلك": 4840,
      "سريع": 4841,
      "شراعي": 4842,
      "شرائط": 4843,
      "صلع": 4844,
      "صينية": 4845,
      "ضربة": 4846,
      "ضيقة": 4847,
      "طبلة": 4848,
      "عاص": 4849,
      "علوي": 4850,
      "فا": 4851,
      "فنية": 4852,
      "قب": 4853,
      "قش": 4854,
      "قلب": 4855,
      "قام": 4856,
      "قدح": 4857,
      "قيادة": 4858,
      "قتال": 4859,
      "كج": 4860,
      "كا": 4861,
      "كف": 4862,
      "كأس": 4863,
      "كمان": 4864,
      "كهرب": 4865,
      "كنيسة": 4866,
      "لب": 4867,
      "لك": 4868,
      "لات": 4869,
      "للف": 4870,
      "لهيب": 4871,
      "مرة": 4872,
      "مبط": 4873,
      "ملاك": 4874,
      "مائل": 4875,
      "ني": 4876,
      "نط": 4877,
      "نز": 4878,
      "نوم": 4879,
      "ناس": 4880,
      "نصب": 4881,
      "نوافير": 4882,
      "هاد": 4883,
      "وصيف": 4884,
      "وخضراء": 4885,
      "يو": 4886,
      "يفر": 4887,
      "يفع": 4888,
      "يغط": 4889,
      "يلاحظ": 4890,
      "##وبي": 4891,
      "##واطئ": 4892,
      "##وصان": 4893,
      "##جام": 4894,
      "##جمع": 4895,
      "##جهة": 4896,
      "##يير": 4897,
      "##اؤ": 4898,
      "##اضة": 4899,
      "##سح": 4900,
      "##سعة": 4901,
      "##عا": 4902,
      "##رين": 4903,
      "##تري": 4904,
      "##تهم": 4905,
      "##تيه": 4906,
      "##دا": 4907,
      "##دع": 4908,
      "##ضدة": 4909,
      "##مت": 4910,
      "##حمس": 4911,
      "##حيم": 4912,
      "##خمة": 4913,
      "##صابع": 4914,
      "##بابة": 4915,
      "##بوغ": 4916,
      "##قس": 4917,
      "##كام": 4918,
      "##كاري": 4919,
      "##فو": 4920,
      "##فون": 4921,
      "##ذب": 4922,
      "##ؤول": 4923,
      "##ؤوس": 4924,
      "##ll": 4925,
      "العب": 4926,
      "الرب": 4927,
      "الارج": 4928,
      "الفراء": 4929,
      "فيها": 4930,
      "##اروخ": 4931,
      "رجلًا": 4932,
      "المث": 4933,
      "المساء": 4934,
      "المبلل": 4935,
      "الماراثون": 4936,
      "##مريك": 4937,
      "##لامس": 4938,
      "##لاجة": 4939,
      "##ماق": 4940,
      "##ماث": 4941,
      "##مادية": 4942,
      "معص": 4943,
      "##اتح": 4944,
      "الأرا": 4945,
      "الأفق": 4946,
      "الأمان": 4947,
      "يركلون": 4948,
      "الشائ": 4949,
      "الشلال": 4950,
      "الشوك": 4951,
      "الشريحة": 4952,
      "الشواطئ": 4953,
      "بالل": 4954,
      "بالإ": 4955,
      "بالتقاط": 4956,
      "بالكتابة": 4957,
      "يتص": 4958,
      "يتشب": 4959,
      "يتحدى": 4960,
      "##نادق": 4961,
      "##ملة": 4962,
      "##ميع": 4963,
      "##ريات": 4964,
      "##رقلة": 4965,
      "##ابض": 4966,
      "العمل": 4967,
      "العرض": 4968,
      "العزف": 4969,
      "العداء": 4970,
      "العكر": 4971,
      "العنق": 4972,
      "العصي": 4973,
      "العناق": 4974,
      "يحبس": 4975,
      "##موجة": 4976,
      "السير": 4977,
      "الساق": 4978,
      "السطح": 4979,
      "السحاب": 4980,
      "يسرن": 4981,
      "##حدثن": 4982,
      "الصيف": 4983,
      "الصوت": 4984,
      "الصينية": 4985,
      "البوق": 4986,
      "البجع": 4987,
      "البلاد": 4988,
      "البنات": 4989,
      "البلاط": 4990,
      "البجعة": 4991,
      "##ائد": 4992,
      "##ائش": 4993,
      "##ائفة": 4994,
      "أسودًا": 4995,
      "التلة": 4996,
      "التضاريس": 4997,
      "التخييم": 4998,
      "ترفس": 4999,
      "ترتد": 5000,
      "##اطعة": 5001,
      "الطيران": 5002,
      "الثوب": 5003,
      "القذ": 5004,
      "القمة": 5005,
      "القامة": 5006,
      "القاحلة": 5007,
      "القصير": 5008,
      "##ورك": 5009,
      "يحملها": 5010,
      "ينق": 5011,
      "ينحت": 5012,
      "الخي": 5013,
      "الخام": 5014,
      "##باحة": 5015,
      "يمسح": 5016,
      "والن": 5017,
      "والد": 5018,
      "والك": 5019,
      "والراكب": 5020,
      "والخضراء": 5021,
      "الجان": 5022,
      "الجولف": 5023,
      "الجحيم": 5024,
      "الحواجز": 5025,
      "واضح": 5026,
      "واجهة": 5027,
      "واسعة": 5028,
      "الشاطئية": 5029,
      "وأربعة": 5030,
      "وأغطية": 5031,
      "##تقل": 5032,
      "الفيديو": 5033,
      "الفاتح": 5034,
      "لعبور": 5035,
      "النيران": 5036,
      "النجوم": 5037,
      "النهار": 5038,
      "النينجا": 5039,
      "##مساك": 5040,
      "متف": 5041,
      "متجمدة": 5042,
      "متحمس": 5043,
      "ويمر": 5044,
      "ويلقي": 5045,
      "مساحة": 5046,
      "للإ": 5047,
      "للان": 5048,
      "للكلب": 5049,
      "للكلاب": 5050,
      "للشرطة": 5051,
      "لوحات": 5052,
      "##اهن": 5053,
      "##اهرة": 5054,
      "مقلاة": 5055,
      "تسابق": 5056,
      "تسريحة": 5057,
      "تسجيل": 5058,
      "##سيج": 5059,
      "##سيوف": 5060,
      "بيع": 5061,
      "بيتزا": 5062,
      "يتسكع": 5063,
      "يتساقط": 5064,
      "##ليج": 5065,
      "يطلان": 5066,
      "الغبار": 5067,
      "وأسودًا": 5068,
      "ملابسه": 5069,
      "الرجلان": 5070,
      "تنف": 5071,
      "##ضاءة": 5072,
      "جداً": 5073,
      "يستمع": 5074,
      "يدرب": 5075,
      "يدخل": 5076,
      "##صاعد": 5077,
      "تتزحلق": 5078,
      "تتدحرج": 5079,
      "تتخطى": 5080,
      "تتجمع": 5081,
      "بحبال": 5082,
      "بحركات": 5083,
      "المحيطة": 5084,
      "يجمع": 5085,
      "يجرون": 5086,
      "##سكوب": 5087,
      "يصوب": 5088,
      "##ويم": 5089,
      "##ويورك": 5090,
      "##وامات": 5091,
      "بعلامة": 5092,
      "شابات": 5093,
      "الجلباب": 5094,
      "تمد": 5095,
      "طريقها": 5096,
      "وتلعب": 5097,
      "وتحيط": 5098,
      "البيت": 5099,
      "محط": 5100,
      "محادث": 5101,
      "وشابة": 5102,
      "وقوف": 5103,
      "وقناع": 5104,
      "##ادر": 5105,
      "منطاد": 5106,
      "المرش": 5107,
      "المركبات": 5108,
      "مشجر": 5109,
      "مشتع": 5110,
      "مشكلة": 5111,
      "مرور": 5112,
      "المتزلجون": 5113,
      "ماوس": 5114,
      "##سمان": 5115,
      "تقلب": 5116,
      "تقليدية": 5117,
      "موجات": 5118,
      "وردياً": 5119,
      "##وسطة": 5120,
      "مزخرف": 5121,
      "يشاهدها": 5122,
      "بأذرع": 5123,
      "بأصابع": 5124,
      "ينزلقان": 5125,
      "تجر": 5126,
      "##اكر": 5127,
      "المنت": 5128,
      "المنط": 5129,
      "المنظر": 5130,
      "المنظار": 5131,
      "بمفر": 5132,
      "مكياج": 5133,
      "مكسورة": 5134,
      "مخلوق": 5135,
      "مصاب": 5136,
      "وراءهم": 5137,
      "تعل": 5138,
      "تعلق": 5139,
      "تعطي": 5140,
      "طويلًا": 5141,
      "جانبه": 5142,
      "مظلات": 5143,
      "داخلية": 5144,
      "##فقين": 5145,
      "كتب": 5146,
      "كتابات": 5147,
      "الابيض": 5148,
      "الازرق": 5149,
      "تدريب": 5150,
      "يهتف": 5151,
      "سيجار": 5152,
      "قطب": 5153,
      "تطعم": 5154,
      "يتأرجحان": 5155,
      "نظار": 5156,
      "الهبوط": 5157,
      "المطاط": 5158,
      "تصعد": 5159,
      "تصفق": 5160,
      "أعمال": 5161,
      "أعماق": 5162,
      "يتقدم": 5163,
      "ليمو": 5164,
      "يغسل": 5165,
      "يغوصان": 5166,
      "يرشان": 5167,
      "الريح": 5168,
      "الريشة": 5169,
      "زورقًا": 5170,
      "يأكلان": 5171,
      "قصبة": 5172,
      "وينتظر": 5173,
      "تستند": 5174,
      "عرضاً": 5175,
      "مدفع": 5176,
      "مستلقي": 5177,
      "شاحب": 5178,
      "الأسماك": 5179,
      "##ناعي": 5180,
      "ويحملان": 5181,
      "يعملون": 5182,
      "ومك": 5183,
      "المقاعد": 5184,
      "آسيويتان": 5185,
      "المعكر": 5186,
      "بسياج": 5187,
      "وعين": 5188,
      "يستلقيان": 5189,
      "ويرفع": 5190,
      "يحدقون": 5191,
      "جليد": 5192,
      "حفاة": 5193,
      "وخلف": 5194,
      "##وهة": 5195,
      "يتبعون": 5196,
      "كتاباً": 5197,
      "رشه": 5198,
      "فاتحة": 5199,
      "يقرأان": 5200,
      "تغوص": 5201,
      "بالمضرب": 5202,
      "استراحة": 5203,
      "لسانها": 5204,
      "مهج": 5205,
      "يلتقطون": 5206,
      "الانت": 5207,
      "لقد": 5208,
      "يظهران": 5209,
      "يبحثون": 5210,
      "مصارعين": 5211,
      "مستلقيا": 5212,
      "الحياة": 5213,
      "وحيدا": 5214,
      "أذنه": 5215,
      "أذنيه": 5216,
      "صفوف": 5217,
      "الداخلية": 5218,
      "جانبية": 5219,
      "البطاطس": 5220,
      "يدوران": 5221,
      "حدثًا": 5222,
      "لأنها": 5223,
      "مثق": 5224,
      "حضنها": 5225,
      "التسلق": 5226,
      "أقنعة": 5227,
      "كمامات": 5228,
      "مظلل": 5229,
      "رباعي": 5230,
      "ويده": 5231,
      "ويدخن": 5232,
      "مكتوب": 5233,
      "مكتوبة": 5234,
      "الفرو": 5235,
      "مقلوبة": 5236,
      "أفواههما": 5237,
      "المناظر": 5238,
      "الزوجين": 5239,
      "مدربه": 5240,
      "كيسًا": 5241,
      "البقرة": 5242,
      "المعدنية": 5243,
      "ركلة": 5244,
      "المستنق": 5245,
      "لسيارة": 5246,
      "الأمامي": 5247,
      "رؤوسهن": 5248,
      "منتجع": 5249,
      "##ولاتة": 5250,
      "ويتحدثون": 5251,
      "رقبة": 5252,
      "رقبته": 5253,
      "باروكة": 5254,
      "المكياج": 5255,
      "الأكبر": 5256,
      "والجبال": 5257,
      "الزجاجية": 5258,
      "تتصارعان": 5259,
      "وبعضهم": 5260,
      "أداة": 5261,
      "بالركض": 5262,
      "يتموضعون": 5263,
      "أذرعهم": 5264,
      "أغنية": 5265,
      "ارتفاع": 5266,
      "طبيعية": 5267,
      "لشخص": 5268,
      "نقطة": 5269,
      "وذراعيه": 5270,
      "##لاطمة": 5271,
      "بأيديهما": 5272,
      "المشجعين": 5273,
      "تكمن": 5274,
      "جسده": 5275,
      "سيدتان": 5276,
      "الراقص": 5277,
      "الماسك": 5278,
      "الصافية": 5279,
      "بأكمام": 5280,
      "بأكياس": 5281,
      "ويسيرون": 5282,
      "جناحيها": 5283,
      "ركبتيه": 5284,
      "نادي": 5285,
      "يابانية": 5286,
      "##جبون": 5287,
      "الخصر": 5288,
      "الوسطى": 5289,
      "المفتوح": 5290,
      "ويمشي": 5291,
      "ويقوم": 5292,
      "ويضحكان": 5293,
      "محفظة": 5294,
      "مطاطية": 5295,
      "الهندباء": 5296,
      "احتفالية": 5297,
      "بمساعدة": 5298,
      "ترقد": 5299,
      "زميله": 5300,
      "شعاع": 5301,
      "عشاء": 5302,
      "وتقرأ": 5303,
      "اللباس": 5304,
      "المغلقة": 5305,
      "الأرنب": 5306,
      "الشاشة": 5307,
      "للصورة": 5308,
      "بقدمه": 5309,
      "جرار": 5310,
      "عظمي": 5311,
      "##نقاذ": 5312,
      "##ئزر": 5313,
      "الممشى": 5314,
      "الميتة": 5315,
      "العدائين": 5316,
      "العارضة": 5317,
      "الرسمية": 5318,
      "للنظر": 5319,
      "مخالبه": 5320,
      "ملطخ": 5321,
      "البالونات": 5322,
      "يتشاركان": 5323,
      "بتدريب": 5324,
      "جاهز": 5325,
      "غزال": 5326,
      "فوضى": 5327,
      "للاستيلاء": 5328,
      "##يماءات": 5329,
      "المهرج": 5330,
      "المكتبة": 5331,
      "الساخن": 5332,
      "البعيدة": 5333,
      "البولينج": 5334,
      "والبرتقالي": 5335,
      "ممزقة": 5336,
      "ونظارة": 5337,
      "خنزير": 5338,
      "دائري": 5339,
      "روضة": 5340,
      "ساعة": 5341,
      "كجزء": 5342,
      "نيويورك": 5343,
      "نطاق": 5344,
      "##مريكا": 5345,
      "الأراضي": 5346,
      "الشائكة": 5347,
      "يتشبث": 5348,
      "المعكرونة": 5349,
      "آثار": 5350,
      "أين": 5351,
      "أنا": 5352,
      "أمان": 5353,
      "أظا": 5354,
      "ألس": 5355,
      "أطواق": 5356,
      "ألماني": 5357,
      "إن": 5358,
      "إبها": 5359,
      "ام": 5360,
      "اجل": 5361,
      "بض": 5362,
      "بث": 5363,
      "بز": 5364,
      "بهما": 5365,
      "ببن": 5366,
      "بكلب": 5367,
      "بضرب": 5368,
      "بطفل": 5369,
      "بوجه": 5370,
      "بولين": 5371,
      "براقة": 5372,
      "تو": 5373,
      "تاب": 5374,
      "تنام": 5375,
      "تلفزيون": 5376,
      "تطفئ": 5377,
      "تمويه": 5378,
      "توجيه": 5379,
      "تمساح": 5380,
      "ثقب": 5381,
      "جم": 5382,
      "جب": 5383,
      "جرة": 5384,
      "جائ": 5385,
      "جيدة": 5386,
      "جوارب": 5387,
      "جمباز": 5388,
      "حما": 5389,
      "حادة": 5390,
      "حمار": 5391,
      "حزين": 5392,
      "خص": 5393,
      "خيا": 5394,
      "خيط": 5395,
      "خندق": 5396,
      "دم": 5397,
      "دائر": 5398,
      "ذي": 5399,
      "ذق": 5400,
      "ذيول": 5401,
      "ذكر": 5402,
      "رص": 5403,
      "رائ": 5404,
      "روم": 5405,
      "راف": 5406,
      "ريش": 5407,
      "سخ": 5408,
      "سبي": 5409,
      "ساكس": 5410,
      "شج": 5411,
      "شرب": 5412,
      "شفت": 5413,
      "شقرا": 5414,
      "صحر": 5415,
      "ضحل": 5416,
      "طبا": 5417,
      "عر": 5418,
      "عجل": 5419,
      "عمو": 5420,
      "عبا": 5421,
      "عناق": 5422,
      "عسكرية": 5423,
      "عراة": 5424,
      "عوامات": 5425,
      "غف": 5426,
      "غزل": 5427,
      "غريبة": 5428,
      "فضي": 5429,
      "فارس": 5430,
      "قري": 5431,
      "قبع": 5432,
      "قاحلة": 5433,
      "قمم": 5434,
      "كهربائي": 5435,
      "كاهن": 5436,
      "لف": 5437,
      "لام": 5438,
      "لهما": 5439,
      "لقط": 5440,
      "لكن": 5441,
      "لراكب": 5442,
      "لنفس": 5443,
      "مشب": 5444,
      "مشد": 5445,
      "ملع": 5446,
      "ميت": 5447,
      "متقاط": 5448,
      "ميكي": 5449,
      "ميدان": 5450,
      "مائدة": 5451,
      "مطاردة": 5452,
      "ناط": 5453,
      "نويل": 5454,
      "نسر": 5455,
      "نيون": 5456,
      "نائمة": 5457,
      "ها": 5458,
      "هما": 5459,
      "هندي": 5460,
      "هبوط": 5461,
      "ولا": 5462,
      "ورا": 5463,
      "ومل": 5464,
      "وصول": 5465,
      "وراكب": 5466,
      "ونساء": 5467,
      "وقفازات": 5468,
      "يض": 5469,
      "يز": 5470,
      "يُ": 5471,
      "ينا": 5472,
      "يمل": 5473,
      "يهر": 5474,
      "يفق": 5475,
      "يكت": 5476,
      "يفح": 5477,
      "يطفئ": 5478,
      "يلاحق": 5479,
      "يلامس": 5480,
      "##ومي": 5481,
      "##وام": 5482,
      "##وبية": 5483,
      "##جان": 5484,
      "##جانب": 5485,
      "##جاد": 5486,
      "##ياء": 5487,
      "##يكل": 5488,
      "##نم": 5489,
      "##نثى": 5490,
      "##عك": 5491,
      "##علان": 5492,
      "##عشاب": 5493,
      "##رش": 5494,
      "##رمان": 5495,
      "##رمن": 5496,
      "##رحية": 5497,
      "##تم": 5498,
      "##تاد": 5499,
      "##دهة": 5500,
      "##هون": 5501,
      "##هير": 5502,
      "##هتمام": 5503,
      "##ضحة": 5504,
      "##مته": 5505,
      "##مارس": 5506,
      "##مثال": 5507,
      "##لص": 5508,
      "##ليل": 5509,
      "##لتقط": 5510,
      "##أم": 5511,
      "##أمل": 5512,
      "##حرج": 5513,
      "##طان": 5514,
      "##طاء": 5515,
      "##طرن": 5516,
      "##صوير": 5517,
      "##بوع": 5518,
      "##قلة": 5519,
      "##قوط": 5520,
      "##قائب": 5521,
      "##ثب": 5522,
      "##ثلون": 5523,
      "##ظم": 5524,
      "##ظمة": 5525,
      "##زع": 5526,
      "##زم": 5527,
      "##زواج": 5528,
      "##كلا": 5529,
      "##كري": 5530,
      "##كروس": 5531,
      "##كشف": 5532,
      "##كينيات": 5533,
      "##شود": 5534,
      "##شقلب": 5535,
      "##شروبات": 5536,
      "##فري": 5537,
      "##فوخ": 5538,
      "##ّج": 5539,
      "##ّم": 5540,
      "##َّ": 5541,
      "##ذراع": 5542,
      "##ؤية": 5543,
      "##آب": 5544,
      "الاب": 5545,
      "اليا": 5546,
      "اليد": 5547,
      "الولا": 5548,
      "الاح": 5549,
      "فيلم": 5550,
      "##اند": 5551,
      "##اءات": 5552,
      "##الم": 5553,
      "منمق": 5554,
      "يراف": 5555,
      "يربض": 5556,
      "المرق": 5557,
      "الملي": 5558,
      "الموت": 5559,
      "الماع": 5560,
      "المزلجة": 5561,
      "المراكب": 5562,
      "الملاعب": 5563,
      "الممد": 5564,
      "المواد": 5565,
      "##مرن": 5566,
      "##قفاز": 5567,
      "##لاسل": 5568,
      "##ماعات": 5569,
      "معشبة": 5570,
      "##اتات": 5571,
      "##اتلان": 5572,
      "الأوسط": 5573,
      "الأعمدة": 5574,
      "الأوشحة": 5575,
      "##راش": 5576,
      "##راوي": 5577,
      "الكام": 5578,
      "صبيا": 5579,
      "##ولي": 5580,
      "الشفاه": 5581,
      "##ربع": 5582,
      "بالي": 5583,
      "بالمر": 5584,
      "باليد": 5585,
      "بالكاميرا": 5586,
      "بالوحل": 5587,
      "بالمن": 5588,
      "بالطح": 5589,
      "بالرس": 5590,
      "بالدمى": 5591,
      "يتح": 5592,
      "يتنا": 5593,
      "يتنزه": 5594,
      "يتدفق": 5595,
      "##ناج": 5596,
      "##ميلة": 5597,
      "##ريطة": 5598,
      "##رقام": 5599,
      "صغيرتين": 5600,
      "طفلهما": 5601,
      "##لابة": 5602,
      "العقب": 5603,
      "العربة": 5604,
      "العسكرية": 5605,
      "يحجب": 5606,
      "السل": 5607,
      "الساحة": 5608,
      "السلك": 5609,
      "السواد": 5610,
      "السريعة": 5611,
      "الساطعة": 5612,
      "السقوط": 5613,
      "يسجل": 5614,
      "يساره": 5615,
      "##هوما": 5616,
      "الركض": 5617,
      "##حدة": 5618,
      "الصلبة": 5619,
      "الصباح": 5620,
      "##هاً": 5621,
      "##هام": 5622,
      "البنت": 5623,
      "البشرة": 5624,
      "التش": 5625,
      "التحدث": 5626,
      "التنزه": 5627,
      "التوازن": 5628,
      "تركت": 5629,
      "ترفرف": 5630,
      "الطباشير": 5631,
      "الطقس": 5632,
      "##خروج": 5633,
      "##خرفة": 5634,
      "مجاني": 5635,
      "مجمدة": 5636,
      "اثنتين": 5637,
      "الثالث": 5638,
      "##وران": 5639,
      "الهواتف": 5640,
      "ينس": 5641,
      "الخد": 5642,
      "##بادة": 5643,
      "##فرها": 5644,
      "يمص": 5645,
      "يقول": 5646,
      "يقطع": 5647,
      "والخ": 5648,
      "والص": 5649,
      "والدي": 5650,
      "والسم": 5651,
      "والزرقاء": 5652,
      "والكلاب": 5653,
      "والجليد": 5654,
      "الجذ": 5655,
      "الجام": 5656,
      "الجماعية": 5657,
      "الجميلة": 5658,
      "الحظيرة": 5659,
      "##افح": 5660,
      "واق": 5661,
      "برش": 5662,
      "بركوب": 5663,
      "بركلة": 5664,
      "الدرب": 5665,
      "الدلاف": 5666,
      "تحكم": 5667,
      "##تقي": 5668,
      "##تقبال": 5669,
      "الفنان": 5670,
      "الفوتوغرافية": 5671,
      "##وجبات": 5672,
      "النز": 5673,
      "النوم": 5674,
      "النزهة": 5675,
      "مته": 5676,
      "متص": 5677,
      "متوسطة": 5678,
      "##مهد": 5679,
      "##مهم": 5680,
      "ويش": 5681,
      "ويواجه": 5682,
      "ويهرب": 5683,
      "مسؤول": 5684,
      "مسرحية": 5685,
      "فمهما": 5686,
      "لله": 5687,
      "للمس": 5688,
      "للتح": 5689,
      "للذهاب": 5690,
      "للخروج": 5691,
      "للوجبات": 5692,
      "لوحًا": 5693,
      "ورضيع": 5694,
      "##اهي": 5695,
      "##اهما": 5696,
      "##اهدون": 5697,
      "أحمرًا": 5698,
      "مقط": 5699,
      "مقدمة": 5700,
      "أشعة": 5701,
      "##سيم": 5702,
      "بيجا": 5703,
      "##ليين": 5704,
      "المتلاطمة": 5705,
      "يطحن": 5706,
      "يطرح": 5707,
      "الغزل": 5708,
      "الغيوم": 5709,
      "راية": 5710,
      "راكع": 5711,
      "المحت": 5712,
      "تنطلق": 5713,
      "كلابهم": 5714,
      "جدران": 5715,
      "يسترخ": 5716,
      "يستحم": 5717,
      "يستكشف": 5718,
      "يدحرج": 5719,
      "سبايد": 5720,
      "تتم": 5721,
      "تتمسك": 5722,
      "تتناول": 5723,
      "تتجول": 5724,
      "خارجًا": 5725,
      "بحزام": 5726,
      "يجثم": 5727,
      "البنيّة": 5728,
      "بعيدة": 5729,
      "بعصي": 5730,
      "شابتان": 5731,
      "جدارا": 5732,
      "##نسة": 5733,
      "الأرضية": 5734,
      "الذهب": 5735,
      "تمت": 5736,
      "وتجلس": 5737,
      "وتراقب": 5738,
      "وتصنع": 5739,
      "وتطل": 5740,
      "البيكينيات": 5741,
      "يعوم": 5742,
      "وقت": 5743,
      "نحيل": 5744,
      "نحيف": 5745,
      "المرت": 5746,
      "مشغ": 5747,
      "مشوهة": 5748,
      "##احل": 5749,
      "##راعيها": 5750,
      "مروحة": 5751,
      "مرسوم": 5752,
      "الآباء": 5753,
      "يحاولون": 5754,
      "ماسورة": 5755,
      "تقع": 5756,
      "تقذف": 5757,
      "خشبيًا": 5758,
      "يراقبان": 5759,
      "وفي": 5760,
      "مزين": 5761,
      "مزرعة": 5762,
      "الدراجين": 5763,
      "مواج": 5764,
      "وسائل": 5765,
      "وسيارة": 5766,
      "يشاهدن": 5767,
      "بألعاب": 5768,
      "أسمرًا": 5769,
      "تتسوق": 5770,
      "المنق": 5771,
      "المنزلق": 5772,
      "اللذان": 5773,
      "بمق": 5774,
      "بمش": 5775,
      "##قطين": 5776,
      "مكبر": 5777,
      "مكنسة": 5778,
      "##ضيق": 5779,
      "عالق": 5780,
      "عالقة": 5781,
      "مصبوغ": 5782,
      "مصراعيها": 5783,
      "يأخذن": 5784,
      "تعرض": 5785,
      "##جاجة": 5786,
      "مطبخ": 5787,
      "أصدقاء": 5788,
      "##نتهما": 5789,
      "يلكم": 5790,
      "بشرية": 5791,
      "بشريط": 5792,
      "بقميص": 5793,
      "تطلق": 5794,
      "يطيران": 5795,
      "تشم": 5796,
      "تشارك": 5797,
      "تشغيل": 5798,
      "الإنش": 5799,
      "الإمساك": 5800,
      "الإنقاذ": 5801,
      "الإعلان": 5802,
      "لرؤية": 5803,
      "سائقي": 5804,
      "الهجوم": 5805,
      "تصب": 5806,
      "أعشاب": 5807,
      "يتقدمون": 5808,
      "بطوق": 5809,
      "يغمس": 5810,
      "يغادر": 5811,
      "يرشش": 5812,
      "يرشون": 5813,
      "##وعاء": 5814,
      "##لوري": 5815,
      "##نباتات": 5816,
      "##راءة": 5817,
      "زورقا": 5818,
      "##هبية": 5819,
      "وينزلق": 5820,
      "اللافتات": 5821,
      "تستخدم": 5822,
      "تستمتع": 5823,
      "عرضًا": 5824,
      "يرفعان": 5825,
      "متنوعة": 5826,
      "متنقلة": 5827,
      "مستعد": 5828,
      "الأسمر": 5829,
      "ساقي": 5830,
      "ومبنى": 5831,
      "ومحفظة": 5832,
      "المعج": 5833,
      "المعرض": 5834,
      "المعاكس": 5835,
      "يتصارعون": 5836,
      "ويركض": 5837,
      "جلسة": 5838,
      "يسحبون": 5839,
      "يجدفان": 5840,
      "إليهم": 5841,
      "السنجاب": 5842,
      "المحمولة": 5843,
      "يتدحرجان": 5844,
      "أوكلا": 5845,
      "رشاقة": 5846,
      "سريره": 5847,
      "يحتج": 5848,
      "أنفاق": 5849,
      "يؤديان": 5850,
      "##اسية": 5851,
      "للألعاب": 5852,
      "للأعلى": 5853,
      "للأرمن": 5854,
      "مخططًا": 5855,
      "بالمشروبات": 5856,
      "إطارا": 5857,
      "تمرين": 5858,
      "المصفقين": 5859,
      "وضعت": 5860,
      "بالحجارة": 5861,
      "مركبات": 5862,
      "ويتظاهر": 5863,
      "يستخدمون": 5864,
      "عمودًا": 5865,
      "الشتوية": 5866,
      "قرون": 5867,
      "الضباب": 5868,
      "لرجلين": 5869,
      "عدسة": 5870,
      "موسيقى": 5871,
      "بابا": 5872,
      "بابتسامة": 5873,
      "ثياباً": 5874,
      "القرود": 5875,
      "القرميد": 5876,
      "بمضربه": 5877,
      "رقائق": 5878,
      "المخاريط": 5879,
      "لمجموعة": 5880,
      "الرقبة": 5881,
      "جالسًا": 5882,
      "يتعامل": 5883,
      "مقودًا": 5884,
      "تبكي": 5885,
      "سماعة": 5886,
      "لأعلى": 5887,
      "لأنفس": 5888,
      "##سمنتي": 5889,
      "مهرجين": 5890,
      "حزامًا": 5891,
      "عصير": 5892,
      "عصابات": 5893,
      "مثيرة": 5894,
      "ويقفزون": 5895,
      "يلوحان": 5896,
      "البالغون": 5897,
      "##بقع": 5898,
      "أقدم": 5899,
      "عينه": 5900,
      "يكون": 5901,
      "المزرعة": 5902,
      "الموجات": 5903,
      "يصنعان": 5904,
      "##صطاد": 5905,
      "مشروبات": 5906,
      "أمتعة": 5907,
      "لحفل": 5908,
      "والعديد": 5909,
      "يستمتعان": 5910,
      "مراهقتان": 5911,
      "الفرسان": 5912,
      "الفرشاة": 5913,
      "مقلما": 5914,
      "حادًا": 5915,
      "شروق": 5916,
      "بالعشب": 5917,
      "يستريحان": 5918,
      "يستريحون": 5919,
      "منعطفا": 5920,
      "جانبيها": 5921,
      "بلوزات": 5922,
      "خرسانية": 5923,
      "مضحكا": 5924,
      "مضحكًا": 5925,
      "وولدان": 5926,
      "يمدان": 5927,
      "وجوهًا": 5928,
      "بلاستيكيًا": 5929,
      "يحتضن": 5930,
      "احتضان": 5931,
      "بصخرة": 5932,
      "يواجهون": 5933,
      "دولاب": 5934,
      "يتشقلب": 5935,
      "سيارتين": 5936,
      "إعلانات": 5937,
      "منتشرة": 5938,
      "يرسمون": 5939,
      "البلدة": 5940,
      "رقبتها": 5941,
      "لدى": 5942,
      "مرقمة": 5943,
      "ويضعون": 5944,
      "تتنافسان": 5945,
      "تشربان": 5946,
      "حاملة": 5947,
      "سعيدة": 5948,
      "الأكورديون": 5949,
      "ويراقبون": 5950,
      "انته": 5951,
      "صعود": 5952,
      "ويلتقط": 5953,
      "الذهبية": 5954,
      "المزدحمة": 5955,
      "أحزمة": 5956,
      "ارتداء": 5957,
      "ثالثة": 5958,
      "لشراء": 5959,
      "والقمصان": 5960,
      "السباحين": 5961,
      "استوائي": 5962,
      "##لاحظات": 5963,
      "اتجاهات": 5964,
      "ألقيت": 5965,
      "سيدتين": 5966,
      "عميق": 5967,
      "يهاجمون": 5968,
      "بالقميص": 5969,
      "الصافي": 5970,
      "القاعة": 5971,
      "ذراعيهما": 5972,
      "إصبعها": 5973,
      "خروفًا": 5974,
      "رداءًا": 5975,
      "للجولف": 5976,
      "يتناولون": 5977,
      "تتعانقان": 5978,
      "الريفية": 5979,
      "جلوسها": 5980,
      "إسمنتي": 5981,
      "سقوط": 5982,
      "صدره": 5983,
      "متقابلة": 5984,
      "يتهيئان": 5985,
      "التدريب": 5986,
      "الطبيعي": 5987,
      "الطبيعية": 5988,
      "ويطير": 5989,
      "للسباق": 5990,
      "يصطفون": 5991,
      "اليابانية": 5992,
      "فنجان": 5993,
      "يميلون": 5994,
      "يتفقدون": 5995,
      "يتفاعل": 5996,
      "الرحال": 5997,
      "الحشائش": 5998,
      "ماكياج": 5999,
      "بمنشفة": 6000,
      "تصطاد": 6001,
      "الهادئة": 6002,
      "إلكتروني": 6003,
      "ارجوحة": 6004,
      "تأتي": 6005,
      "تعبير": 6006,
      "سونرز": 6007,
      "سلوقي": 6008,
      "ضاحكة": 6009,
      "طائرا": 6010,
      "فرشاة": 6011,
      "لتصويب": 6012,
      "يبرز": 6013,
      "المرفأ": 6014,
      "البوظة": 6015,
      "يخطو": 6016,
      "الانفاق": 6017,
      "وكأنه": 6018,
      "منافسه": 6019,
      "الخرسانة": 6020,
      "لوحدها": 6021,
      "تُقاد": 6022,
      "حذائها": 6023,
      "أوسطية": 6024,
      "اختبار": 6025,
      "دومينو": 6026,
      "عاصفة": 6027,
      "فاخر": 6028,
      "ملاكم": 6029,
      "وصيفات": 6030,
      "يفعلون": 6031,
      "يغطس": 6032,
      "##اؤب": 6033,
      "##ماثيل": 6034,
      "ينقض": 6035,
      "الخيمة": 6036,
      "المنطقة": 6037,
      "تعلن": 6038,
      "نظارتها": 6039,
      "ليموزين": 6040,
      "مهجور": 6041,
      "امتد": 6042,
      "بولينغ": 6043,
      "جائزة": 6044,
      "دائرية": 6045,
      "شجيرة": 6046,
      "شفتيه": 6047,
      "شقراوتان": 6048,
      "صحراء": 6049,
      "عبارة": 6050,
      "غفوة": 6051,
      "مشدود": 6052,
      "ملعقة": 6053,
      "##مارسة": 6054,
      "##طرنج": 6055,
      "##فريت": 6056,
      "يرافق": 6057,
      "المليئة": 6058,
      "الماعز": 6059,
      "الممدودة": 6060,
      "الكاميرات": 6061,
      "بالطحالب": 6062,
      "العقبات": 6063,
      "والسماء": 6064,
      "الدلافين": 6065,
      "الفنانين": 6066,
      "الإنشاء": 6067,
      "أوكلاهوما": 6068,
      "BM": 6069,
      "Re": 6070,
      "آس": 6071,
      "أي": 6072,
      "أقط": 6073,
      "أمريكا": 6074,
      "أزواج": 6075,
      "إوز": 6076,
      "إنسان": 6077,
      "إضاءة": 6078,
      "اج": 6079,
      "اع": 6080,
      "احد": 6081,
      "اصفر": 6082,
      "اناس": 6083,
      "ازياء": 6084,
      "انق": 6085,
      "اربعة": 6086,
      "اطفاء": 6087,
      "اطلاق": 6088,
      "بب": 6089,
      "بلعب": 6090,
      "برب": 6091,
      "بشد": 6092,
      "بقر": 6093,
      "بسك": 6094,
      "بورق": 6095,
      "بنت": 6096,
      "بتص": 6097,
      "برقص": 6098,
      "بسيارات": 6099,
      "بوسط": 6100,
      "بتسلق": 6101,
      "بموجة": 6102,
      "بوعاء": 6103,
      "ببقع": 6104,
      "تذ": 6105,
      "تين": 6106,
      "تزحلق": 6107,
      "تثير": 6108,
      "تفعل": 6109,
      "تبيع": 6110,
      "تهرب": 6111,
      "تذهب": 6112,
      "تفحص": 6113,
      "تخت": 6114,
      "تاخذ": 6115,
      "ثق": 6116,
      "ثدي": 6117,
      "ثورا": 6118,
      "ثقي": 6119,
      "جو": 6120,
      "جي": 6121,
      "جما": 6122,
      "جمال": 6123,
      "جمع": 6124,
      "جافة": 6125,
      "جوية": 6126,
      "جيتار": 6127,
      "جند": 6128,
      "جرس": 6129,
      "جاث": 6130,
      "جاكس": 6131,
      "جماعية": 6132,
      "حر": 6133,
      "حل": 6134,
      "حيرة": 6135,
      "حاج": 6136,
      "حولا": 6137,
      "حدو": 6138,
      "حبات": 6139,
      "حزمة": 6140,
      "خلاب": 6141,
      "خور": 6142,
      "خافت": 6143,
      "خريطة": 6144,
      "دفق": 6145,
      "دولف": 6146,
      "ذرة": 6147,
      "ذبابة": 6148,
      "رس": 6149,
      "رفق": 6150,
      "رطبة": 6151,
      "ردهة": 6152,
      "زخرف": 6153,
      "سر": 6154,
      "سف": 6155,
      "سقف": 6156,
      "سكن": 6157,
      "سوبر": 6158,
      "سومو": 6159,
      "سطل": 6160,
      "سريعة": 6161,
      "شال": 6162,
      "شفاه": 6163,
      "صقر": 6164,
      "صوت": 6165,
      "صيني": 6166,
      "صحن": 6167,
      "صاروخ": 6168,
      "صناعي": 6169,
      "طب": 6170,
      "طرق": 6171,
      "طلاب": 6172,
      "طبل": 6173,
      "عو": 6174,
      "عل": 6175,
      "علب": 6176,
      "عشرة": 6177,
      "عادية": 6178,
      "غص": 6179,
      "غرض": 6180,
      "غبار": 6181,
      "غائمة": 6182,
      "غيوم": 6183,
      "غصن": 6184,
      "فريسبي": 6185,
      "فعل": 6186,
      "فاكهة": 6187,
      "فلوري": 6188,
      "قلم": 6189,
      "قراءة": 6190,
      "كاب": 6191,
      "لول": 6192,
      "لهم": 6193,
      "لحدث": 6194,
      "لثلاثة": 6195,
      "لتسلق": 6196,
      "لفريق": 6197,
      "مب": 6198,
      "مها": 6199,
      "مثير": 6200,
      "مراقب": 6201,
      "مباني": 6202,
      "ملقى": 6203,
      "مئزر": 6204,
      "ملاحظات": 6205,
      "نف": 6206,
      "نظر": 6207,
      "ناد": 6208,
      "نقل": 6209,
      "ناع": 6210,
      "نبات": 6211,
      "نباتات": 6212,
      "نوافذ": 6213,
      "هبط": 6214,
      "هندية": 6215,
      "ود": 6216,
      "وث": 6217,
      "وجل": 6218,
      "ولب": 6219,
      "وفر": 6220,
      "ومس": 6221,
      "وكبي": 6222,
      "ومن": 6223,
      "ووجه": 6224,
      "وهبوط": 6225,
      "يان": 6226,
      "يعب": 6227,
      "يضيء": 6228,
      "ياخذ": 6229,
      "##ومات": 6230,
      "##ودين": 6231,
      "##وديو": 6232,
      "##جد": 6233,
      "##جف": 6234,
      "##جية": 6235,
      "##جوس": 6236,
      "##جعات": 6237,
      "##جهزة": 6238,
      "##يء": 6239,
      "##يوه": 6240,
      "##يوانات": 6241,
      "##نود": 6242,
      "##نغر": 6243,
      "##نزة": 6244,
      "##نوعة": 6245,
      "##نظيف": 6246,
      "##اعب": 6247,
      "##اير": 6248,
      "##ايات": 6249,
      "##اوز": 6250,
      "##اديف": 6251,
      "##اوتان": 6252,
      "##سية": 6253,
      "##سيل": 6254,
      "##سومة": 6255,
      "##عه": 6256,
      "##عار": 6257,
      "##عود": 6258,
      "##عرج": 6259,
      "##تزلج": 6260,
      "##تفرجين": 6261,
      "##تناج": 6262,
      "##دش": 6263,
      "##دلية": 6264,
      "##هث": 6265,
      "##ضن": 6266,
      "##ضمام": 6267,
      "##مير": 6268,
      "##له": 6269,
      "##لأ": 6270,
      "##لط": 6271,
      "##لمة": 6272,
      "##لحية": 6273,
      "##حث": 6274,
      "##حاء": 6275,
      "##حات": 6276,
      "##حرف": 6277,
      "##حناء": 6278,
      "##حاولة": 6279,
      "##حاق": 6280,
      "##حلات": 6281,
      "##حيض": 6282,
      "##خلق": 6283,
      "##خراج": 6284,
      "##خور": 6285,
      "##خام": 6286,
      "##طرة": 6287,
      "##طحة": 6288,
      "##طعام": 6289,
      "##طاير": 6290,
      "##صح": 6291,
      "##صلون": 6292,
      "##صائر": 6293,
      "##صلاح": 6294,
      "##بون": 6295,
      "##بورة": 6296,
      "##ئه": 6297,
      "##ئكة": 6298,
      "##قت": 6299,
      "##قد": 6300,
      "##قق": 6301,
      "##قات": 6302,
      "##قاط": 6303,
      "##قدام": 6304,
      "##ثو": 6305,
      "##ثية": 6306,
      "##ىء": 6307,
      "##ظهار": 6308,
      "##زية": 6309,
      "##زلون": 6310,
      "##زوج": 6311,
      "##زمار": 6312,
      "##زانة": 6313,
      "##كا": 6314,
      "##كاء": 6315,
      "##كية": 6316,
      "##كعة": 6317,
      "##شان": 6318,
      "##شين": 6319,
      "##شخاص": 6320,
      "##شوة": 6321,
      "##شتا": 6322,
      "##شنط": 6323,
      "##فن": 6324,
      "##فف": 6325,
      "##فور": 6326,
      "##فوف": 6327,
      "##غو": 6328,
      "##غة": 6329,
      "##غين": 6330,
      "##ِّ": 6331,
      "##ّان": 6332,
      "##ذاف": 6333,
      "##ذبة": 6334,
      "##ذكرة": 6335,
      "##آلات": 6336,
      "##er": 6337,
      "##ull": 6338,
      "الال": 6339,
      "الدي": 6340,
      "البيض": 6341,
      "الام": 6342,
      "اللي": 6343,
      "الارض": 6344,
      "الوصول": 6345,
      "##انيات": 6346,
      "##انوية": 6347,
      "##بيب": 6348,
      "##اءب": 6349,
      "##الد": 6350,
      "##الجة": 6351,
      "##اليتين": 6352,
      "##الوين": 6353,
      "منتف": 6354,
      "مناس": 6355,
      "منظار": 6356,
      "منضدة": 6357,
      "منفوخ": 6358,
      "يرى": 6359,
      "يريد": 6360,
      "يريح": 6361,
      "##دياً": 6362,
      "##ارت": 6363,
      "##ارق": 6364,
      "##اركة": 6365,
      "##ارتين": 6366,
      "##ارتداء": 6367,
      "المف": 6368,
      "المؤ": 6369,
      "المعب": 6370,
      "الملا": 6371,
      "المرا": 6372,
      "المهر": 6373,
      "المبتسم": 6374,
      "المطار": 6375,
      "الموز": 6376,
      "المزه": 6377,
      "المائي": 6378,
      "المجلات": 6379,
      "##ونو": 6380,
      "##لاج": 6381,
      "##يركي": 6382,
      "معها": 6383,
      "معهم": 6384,
      "معسك": 6385,
      "معالج": 6386,
      "##اتم": 6387,
      "الأل": 6388,
      "الأول": 6389,
      "الأوز": 6390,
      "الأنه": 6391,
      "الأرجل": 6392,
      "الأزهار": 6393,
      "##راس": 6394,
      "##راض": 6395,
      "##راشة": 6396,
      "الكتل": 6397,
      "الكهف": 6398,
      "الكنغر": 6399,
      "##وليب": 6400,
      "الشع": 6401,
      "الشر": 6402,
      "الشاه": 6403,
      "الشيط": 6404,
      "الشراب": 6405,
      "الشريط": 6406,
      "الشطرنج": 6407,
      "الشيء": 6408,
      "بالمو": 6409,
      "بالور": 6410,
      "بالوس": 6411,
      "بالزي": 6412,
      "بالرقص": 6413,
      "باللعبة": 6414,
      "بالخرطوم": 6415,
      "بالذراع": 6416,
      "يتبار": 6417,
      "يتقا": 6418,
      "يتلقى": 6419,
      "يتحدثن": 6420,
      "يتأمل": 6421,
      "##ناف": 6422,
      "##نارة": 6423,
      "##ناية": 6424,
      "##مياه": 6425,
      "##ريك": 6426,
      "##ريبا": 6427,
      "##ريقة": 6428,
      "##ريبين": 6429,
      "##رقية": 6430,
      "يقفزن": 6431,
      "##ابون": 6432,
      "##راجع": 6433,
      "العكرة": 6434,
      "العراة": 6435,
      "##نيان": 6436,
      "يحي": 6437,
      "يحمي": 6438,
      "يحرق": 6439,
      "السج": 6440,
      "السحب": 6441,
      "السلسلة": 6442,
      "السبورة": 6443,
      "يسار": 6444,
      "يسكب": 6445,
      "يسوع": 6446,
      "شخصية": 6447,
      "##وقت": 6448,
      "الرخام": 6449,
      "##حدرة": 6450,
      "يركضن": 6451,
      "الصد": 6452,
      "الصناديق": 6453,
      "الصنادل": 6454,
      "الصلص": 6455,
      "الصعود": 6456,
      "البه": 6457,
      "البذ": 6458,
      "البان": 6459,
      "البار": 6460,
      "البري": 6461,
      "البريط": 6462,
      "البولو": 6463,
      "البراقة": 6464,
      "البنك": 6465,
      "البتناج": 6466,
      "البكاء": 6467,
      "##ائه": 6468,
      "التقط": 6469,
      "التخرج": 6470,
      "التنين": 6471,
      "التمرين": 6472,
      "التصوير": 6473,
      "التماثيل": 6474,
      "النادي": 6475,
      "تركع": 6476,
      "##اطا": 6477,
      "##اطىء": 6478,
      "الطابق": 6479,
      "الطنان": 6480,
      "الطاز": 6481,
      "الطاقة": 6482,
      "الطابور": 6483,
      "قميصين": 6484,
      "##خرز": 6485,
      "مجموع": 6486,
      "مجاديف": 6487,
      "مجذاف": 6488,
      "الثاني": 6489,
      "الثانوية": 6490,
      "القطارات": 6491,
      "القابلة": 6492,
      "القصب": 6493,
      "القصيرة": 6494,
      "القريبين": 6495,
      "الهولا": 6496,
      "أمامهم": 6497,
      "أمامهما": 6498,
      "ينغ": 6499,
      "ينقل": 6500,
      "ينتف": 6501,
      "ينحرف": 6502,
      "ينزلون": 6503,
      "الخوض": 6504,
      "الخوخ": 6505,
      "الخمسة": 6506,
      "الخلابة": 6507,
      "##تسجيل": 6508,
      "##باً": 6509,
      "##باه": 6510,
      "##بابي": 6511,
      "##بادل": 6512,
      "يمنع": 6513,
      "يمثلان": 6514,
      "يمشين": 6515,
      "فوقها": 6516,
      "يقيس": 6517,
      "##ومبي": 6518,
      "##رجال": 6519,
      "##رجاع": 6520,
      "عبرت": 6521,
      "والذ": 6522,
      "واللعب": 6523,
      "والسيارات": 6524,
      "والفريق": 6525,
      "واللحية": 6526,
      "##عداء": 6527,
      "##عدات": 6528,
      "حقي": 6529,
      "حقا": 6530,
      "الحر": 6531,
      "الحما": 6532,
      "الحاد": 6533,
      "الحديد": 6534,
      "الحوض": 6535,
      "الحزام": 6536,
      "الحانة": 6537,
      "الحرية": 6538,
      "الحليب": 6539,
      "الحرم": 6540,
      "الحمير": 6541,
      "الحصائر": 6542,
      "الحراس": 6543,
      "##افلات": 6544,
      "بجناح": 6545,
      "واضحة": 6546,
      "واشنط": 6547,
      "برمي": 6548,
      "الدببة": 6549,
      "تحوم": 6550,
      "تحته": 6551,
      "تحطم": 6552,
      "لاست": 6553,
      "لاكروس": 6554,
      "وأك": 6555,
      "وأحد": 6556,
      "وأمام": 6557,
      "وأذرع": 6558,
      "وأجنحة": 6559,
      "الفول": 6560,
      "الفيل": 6561,
      "الفنية": 6562,
      "الفاني": 6563,
      "الفارغ": 6564,
      "الفحم": 6565,
      "الفائز": 6566,
      "الفراش": 6567,
      "الفصح": 6568,
      "النفق": 6569,
      "النصب": 6570,
      "##اجبين": 6571,
      "متر": 6572,
      "متزل": 6573,
      "متظاهر": 6574,
      "متصل": 6575,
      "متواز": 6576,
      "متشاب": 6577,
      "متماس": 6578,
      "متهيئ": 6579,
      "متفرجين": 6580,
      "ويغ": 6581,
      "ويعض": 6582,
      "ويجر": 6583,
      "ويخرج": 6584,
      "ويظهر": 6585,
      "ويفعل": 6586,
      "ويأخذ": 6587,
      "ويبحث": 6588,
      "ويفتح": 6589,
      "ويحدق": 6590,
      "ويطل": 6591,
      "ويغني": 6592,
      "ويصطاد": 6593,
      "بجانبهم": 6594,
      "بجانبهما": 6595,
      "مسبح": 6596,
      "مستع": 6597,
      "مساعدة": 6598,
      "للرقص": 6599,
      "للبيع": 6600,
      "للصور": 6601,
      "للتسلق": 6602,
      "للهبوط": 6603,
      "كبيرتين": 6604,
      "ورمادي": 6605,
      "ورمادية": 6606,
      "ينظرن": 6607,
      "لاعبًا": 6608,
      "مقوس": 6609,
      "مقطع": 6610,
      "تساقط": 6611,
      "##سيكي": 6612,
      "سياسية": 6613,
      "بيض": 6614,
      "بيوم": 6615,
      "بيديها": 6616,
      "بيغل": 6617,
      "##ليم": 6618,
      "##ليك": 6619,
      "المتحرك": 6620,
      "المتحدة": 6621,
      "المتعرج": 6622,
      "يشت": 6623,
      "يشغل": 6624,
      "يطلب": 6625,
      "يطوي": 6626,
      "الزهرة": 6627,
      "الغرفة": 6628,
      "الغالب": 6629,
      "راعي": 6630,
      "راكعة": 6631,
      "ملابسها": 6632,
      "المحاط": 6633,
      "الرجلين": 6634,
      "تنين": 6635,
      "تنبح": 6636,
      "تنكر": 6637,
      "كلابه": 6638,
      "كلابها": 6639,
      "##تهي": 6640,
      "يستح": 6641,
      "يستلقون": 6642,
      "##صاحب": 6643,
      "تتص": 6644,
      "تتوقف": 6645,
      "تتطلع": 6646,
      "تتناثر": 6647,
      "تتشقلب": 6648,
      "أحدهن": 6649,
      "برتقالة": 6650,
      "عنه": 6651,
      "عنها": 6652,
      "عنزة": 6653,
      "بحماس": 6654,
      "والأحذية": 6655,
      "يجرب": 6656,
      "يجوب": 6657,
      "يجثو": 6658,
      "حولهم": 6659,
      "وجو": 6660,
      "وجبل": 6661,
      "وجرو": 6662,
      "وجسر": 6663,
      "##واي": 6664,
      "بعربة": 6665,
      "##ولاته": 6666,
      "قدمين": 6667,
      "قدمها": 6668,
      "الجليدي": 6669,
      "رأسًا": 6670,
      "رأساً": 6671,
      "##بالغين": 6672,
      "الذراع": 6673,
      "الذكر": 6674,
      "تحتج": 6675,
      "تحتضن": 6676,
      "تمتد": 6677,
      "##اخرة": 6678,
      "طريقهم": 6679,
      "وتد": 6680,
      "وتاج": 6681,
      "وتبحث": 6682,
      "وتأكل": 6683,
      "وتشرب": 6684,
      "وتحدق": 6685,
      "وتجري": 6686,
      "وتلتقط": 6687,
      "وشجرة": 6688,
      "يعت": 6689,
      "يعلق": 6690,
      "يعرض": 6691,
      "يعلم": 6692,
      "يمسكه": 6693,
      "يمسكها": 6694,
      "وقد": 6695,
      "##فسهم": 6696,
      "سباقات": 6697,
      "سباقًا": 6698,
      "نحيفة": 6699,
      "المرء": 6700,
      "مشرقة": 6701,
      "مشجع": 6702,
      "أرجوان": 6703,
      "أنت": 6704,
      "أنوف": 6705,
      "أنحاء": 6706,
      "أنفسهم": 6707,
      "##راعية": 6708,
      "مرنة": 6709,
      "مركوب": 6710,
      "مرأة": 6711,
      "مرعى": 6712,
      "مرئي": 6713,
      "مرآب": 6714,
      "أخضرًا": 6715,
      "متزلجة": 6716,
      "هواة": 6717,
      "مايكل": 6718,
      "يطارده": 6719,
      "تقريبا": 6720,
      "موجودة": 6721,
      "تركضان": 6722,
      "متسخ": 6723,
      "الصبيان": 6724,
      "بجواره": 6725,
      "يراقبهم": 6726,
      "الصحف": 6727,
      "الصحيفة": 6728,
      "البرك": 6729,
      "وفريسبي": 6730,
      "مزد": 6731,
      "مزودة": 6732,
      "مزهرة": 6733,
      "مزلاج": 6734,
      "موض": 6735,
      "موحد": 6736,
      "مورقة": 6737,
      "وساق": 6738,
      "وسيدة": 6739,
      "وسادات": 6740,
      "وسماعات": 6741,
      "بأن": 6742,
      "بأق": 6743,
      "بأربعة": 6744,
      "بأطواق": 6745,
      "بأعلام": 6746,
      "بأربع": 6747,
      "يتمكن": 6748,
      "تجثم": 6749,
      "تتساقط": 6750,
      "المنديل": 6751,
      "المنحدرة": 6752,
      "كرمة": 6753,
      "كرتون": 6754,
      "بدأ": 6755,
      "بدفع": 6756,
      "اللحاق": 6757,
      "بمن": 6758,
      "بمنا": 6759,
      "بمحفظة": 6760,
      "بممارسة": 6761,
      "##حبك": 6762,
      "مخف": 6763,
      "##دفقة": 6764,
      "عالي": 6765,
      "مصف": 6766,
      "مصباح": 6767,
      "الورود": 6768,
      "##رابزون": 6769,
      "##وزة": 6770,
      "الجوائز": 6771,
      "تعويم": 6772,
      "طائران": 6773,
      "طائرًا": 6774,
      "سياجًا": 6775,
      "##حركة": 6776,
      "المسافر": 6777,
      "المساعدة": 6778,
      "مطارد": 6779,
      "يتجاذ": 6780,
      "سرواله": 6781,
      "أصف": 6782,
      "أصحاب": 6783,
      "يلتص": 6784,
      "كتل": 6785,
      "اليوغ": 6786,
      "بقوارب": 6787,
      "بقمصان": 6788,
      "وحشد": 6789,
      "وحصان": 6790,
      "وحارس": 6791,
      "وحكم": 6792,
      "تدخل": 6793,
      "يهب": 6794,
      "يهتز": 6795,
      "##قراءة": 6796,
      "قطط": 6797,
      "تشكل": 6798,
      "تشتري": 6799,
      "يتأرجحون": 6800,
      "عليهم": 6801,
      "الإن": 6802,
      "الإوز": 6803,
      "الإلكترون": 6804,
      "الإنسان": 6805,
      "كلهم": 6806,
      "كلوز": 6807,
      "يبنيان": 6808,
      "المطلة": 6809,
      "المطلي": 6810,
      "المطابقة": 6811,
      "قفزت": 6812,
      "يتقلب": 6813,
      "بطولة": 6814,
      "بطنها": 6815,
      "بطاقة": 6816,
      "ليص": 6817,
      "ليقفز": 6818,
      "يغمز": 6819,
      "بالأزرق": 6820,
      "بالألوان": 6821,
      "بالأوساخ": 6822,
      "بالأزهار": 6823,
      "بنزين": 6824,
      "شيئاً": 6825,
      "أكوام": 6826,
      "متسلقان": 6827,
      "المشجعات": 6828,
      "زجاجات": 6829,
      "يخرجان": 6830,
      "##طيور": 6831,
      "منزلها": 6832,
      "يسقطان": 6833,
      "يسقطون": 6834,
      "يعضان": 6835,
      "##مارين": 6836,
      "تستمع": 6837,
      "تستنشق": 6838,
      "زلاقة": 6839,
      "يضعان": 6840,
      "للحافلات": 6841,
      "بلاستيك": 6842,
      "##حركات": 6843,
      "خيمته": 6844,
      "مدهون": 6845,
      "##جاهل": 6846,
      "متنكر": 6847,
      "وصبيان": 6848,
      "الموحد": 6849,
      "##ناعية": 6850,
      "ساقط": 6851,
      "ساقها": 6852,
      "الضحل": 6853,
      "عائمة": 6854,
      "ينفث": 6855,
      "ومص": 6856,
      "ومش": 6857,
      "معداتهم": 6858,
      "المعطف": 6859,
      "المعارض": 6860,
      "المعجبون": 6861,
      "فستانا": 6862,
      "ملته": 6863,
      "بسيف": 6864,
      "ممت": 6865,
      "ممطر": 6866,
      "مبتسمين": 6867,
      "وعرة": 6868,
      "وعلامة": 6869,
      "قمصانًا": 6870,
      "قمصاناً": 6871,
      "جلس": 6872,
      "مبتسماً": 6873,
      "يتدرب": 6874,
      "يتدلي": 6875,
      "شلالاً": 6876,
      "##تفعة": 6877,
      "الأعمال": 6878,
      "ورقي": 6879,
      "##وهج": 6880,
      "##لاكمة": 6881,
      "يتبعها": 6882,
      "##جمهور": 6883,
      "رشها": 6884,
      "سريرها": 6885,
      "أنفاس": 6886,
      "يصعدون": 6887,
      "بلد": 6888,
      "مضربًا": 6889,
      "ولديه": 6890,
      "ولديها": 6891,
      "الرماية": 6892,
      "قناعاً": 6893,
      "الكامل": 6894,
      "تغذية": 6895,
      "تغيير": 6896,
      "ملونين": 6897,
      "ملونًا": 6898,
      "ملوناً": 6899,
      "بالمباني": 6900,
      "معدنيًا": 6901,
      "طوفًا": 6902,
      "المصعد": 6903,
      "المصاصة": 6904,
      "فاتحًا": 6905,
      "استاد": 6906,
      "استخدام": 6907,
      "لصديق": 6908,
      "بالحيل": 6909,
      "يلتقطن": 6910,
      "يلتقطان": 6911,
      "غطاس": 6912,
      "الورقة": 6913,
      "المتساقط": 6914,
      "يتظاهرن": 6915,
      "ويتم": 6916,
      "ويترك": 6917,
      "الانزلاق": 6918,
      "قرية": 6919,
      "##كربيل": 6920,
      "الضارة": 6921,
      "الضخمة": 6922,
      "حقائبهم": 6923,
      "عداد": 6924,
      "يساعده": 6925,
      "لتذكرة": 6926,
      "القرية": 6927,
      "الحيوان": 6928,
      "اللاعبان": 6929,
      "صفين": 6930,
      "تلتقطان": 6931,
      "داكنًا": 6932,
      "سنارتين": 6933,
      "يعبران": 6934,
      "البطاقات": 6935,
      "الزحلوقة": 6936,
      "صورهم": 6937,
      "مربع": 6938,
      "##رخون": 6939,
      "تأكلان": 6940,
      "سحبه": 6941,
      "##لكات": 6942,
      "الكركي": 6943,
      "الكرتون": 6944,
      "للتزحلق": 6945,
      "مرتدين": 6946,
      "تبدأ": 6947,
      "جهازًا": 6948,
      "سكين": 6949,
      "وبنية": 6950,
      "ومعه": 6951,
      "منقار": 6952,
      "المتنزهون": 6953,
      "عصاه": 6954,
      "عصفور": 6955,
      "مثبت": 6956,
      "للمشي": 6957,
      "يغوصون": 6958,
      "شريطًا": 6959,
      "حضري": 6960,
      "##رافيتي": 6961,
      "التسلية": 6962,
      "بنفسجية": 6963,
      "زفافهما": 6964,
      "عينيها": 6965,
      "يكمل": 6966,
      "يكافح": 6967,
      "الستة": 6968,
      "يصنعون": 6969,
      "تبحثان": 6970,
      "شبه": 6971,
      "عباءات": 6972,
      "وكلاب": 6973,
      "وكراسي": 6974,
      "وشورتا": 6975,
      "وسروالًا": 6976,
      "وسروالاً": 6977,
      "فروع": 6978,
      "لحشد": 6979,
      "لحيته": 6980,
      "والسهم": 6981,
      "والسروال": 6982,
      "يشاركان": 6983,
      "مكتظ": 6984,
      "كتفيه": 6985,
      "حيلًا": 6986,
      "رؤيته": 6987,
      "قادم": 6988,
      "قافلة": 6989,
      "الهام": 6990,
      "الفرح": 6991,
      "بالتجديف": 6992,
      "بتمرين": 6993,
      "صحراوي": 6994,
      "ليلية": 6995,
      "المجاني": 6996,
      "القطط": 6997,
      "ممدود": 6998,
      "ممددة": 6999,
      "جانبيه": 7000,
      "##حفاة": 7001,
      "البلاستيكي": 7002,
      "شرقي": 7003,
      "غامض": 7004,
      "قلعة": 7005,
      "المعدني": 7006,
      "##رائس": 7007,
      "والمج": 7008,
      "واقفين": 7009,
      "يعطيها": 7010,
      "بشعرها": 7011,
      "احترافية": 7012,
      "المستعار": 7013,
      "الأحياء": 7014,
      "وترش": 7015,
      "وتركب": 7016,
      "بنطالا": 7017,
      "يخوضان": 7018,
      "يخوضون": 7019,
      "دبابة": 7020,
      "لسحب": 7021,
      "لكلبه": 7022,
      "##اثة": 7023,
      "يمتلك": 7024,
      "يصوران": 7025,
      "ضربه": 7026,
      "أكتافهم": 7027,
      "صافية": 7028,
      "لعق": 7029,
      "لدخول": 7030,
      "لإطلاق": 7031,
      "لإلقاء": 7032,
      "يذهبون": 7033,
      "##صقات": 7034,
      "الخطوط": 7035,
      "موجودون": 7036,
      "يتمتعان": 7037,
      "أنيق": 7038,
      "بكرات": 7039,
      "توقفت": 7040,
      "جليديًا": 7041,
      "سحاب": 7042,
      "صاحبها": 7043,
      "البداية": 7044,
      "والجينز": 7045,
      "ويحيط": 7046,
      "الزجاجات": 7047,
      "##فريقية": 7048,
      "بالسجاد": 7049,
      "بالرمل": 7050,
      "يتموضعان": 7051,
      "الثلاثية": 7052,
      "يجرفون": 7053,
      "يصارعان": 7054,
      "أذرعهما": 7055,
      "أغصان": 7056,
      "صديقه": 7057,
      "لطيف": 7058,
      "لطائر": 7059,
      "مموها": 7060,
      "نقش": 7061,
      "وذهبية": 7062,
      "والقميص": 7063,
      "الحجرية": 7064,
      "ويشيرون": 7065,
      "أسمنتية": 7066,
      "ألقت": 7067,
      "ألقى": 7068,
      "اسفل": 7069,
      "جسدها": 7070,
      "معبد": 7071,
      "معبأة": 7072,
      "ملائكة": 7073,
      "##ذهلة": 7074,
      "المايوه": 7075,
      "بالفريسبي": 7076,
      "التعرج": 7077,
      "التعامل": 7078,
      "القادمة": 7079,
      "أفقي": 7080,
      "سيره": 7081,
      "سيرها": 7082,
      "كاملة": 7083,
      "ياباني": 7084,
      "السوداني": 7085,
      "الخصم": 7086,
      "المبارزة": 7087,
      "المفتوحة": 7088,
      "المصارعين": 7089,
      "السائقين": 7090,
      "وأسفل": 7091,
      "للرمي": 7092,
      "للرأس": 7093,
      "يستعيد": 7094,
      "تتعلق": 7095,
      "وجوده": 7096,
      "تمارسان": 7097,
      "بذراعه": 7098,
      "زحافاته": 7099,
      "جلوسهما": 7100,
      "محشوًا": 7101,
      "احتفال": 7102,
      "أيديهما": 7103,
      "بمسح": 7104,
      "ترقصان": 7105,
      "سقيفة": 7106,
      "صدرها": 7107,
      "عارضة": 7108,
      "للاهتمام": 7109,
      "ممسكا": 7110,
      "ممسكين": 7111,
      "وكلهم": 7112,
      "##وينات": 7113,
      "المالك": 7114,
      "الشاي": 7115,
      "التوأم": 7116,
      "يقدمان": 7117,
      "والرمادي": 7118,
      "والشمس": 7119,
      "ويطارد": 7120,
      "يتسوقون": 7121,
      "وتعزف": 7122,
      "الياباني": 7123,
      "الاستقبال": 7124,
      "يبتعدان": 7125,
      "البلوزات": 7126,
      "أطباق": 7127,
      "حلقات": 7128,
      "زهرياً": 7129,
      "قليلة": 7130,
      "قليلاً": 7131,
      "وتسير": 7132,
      "يميلان": 7133,
      "منازل": 7134,
      "بالنار": 7135,
      "يتفقد": 7136,
      "العمود": 7137,
      "الرغم": 7138,
      "بمنشار": 7139,
      "تصطدم": 7140,
      "الهادئ": 7141,
      "تاجًا": 7142,
      "زبدة": 7143,
      "عريض": 7144,
      "ميداليتين": 7145,
      "هزيل": 7146,
      "الشاحنة": 7147,
      "الشاحنات": 7148,
      "يتثاؤب": 7149,
      "يتثاءب": 7150,
      "التذكاري": 7151,
      "التذاكر": 7152,
      "حقيبتين": 7153,
      "ويأكلان": 7154,
      "مقنعين": 7155,
      "وقطعة": 7156,
      "وفتيات": 7157,
      "وفتاتان": 7158,
      "مستنقع": 7159,
      "يتدافعان": 7160,
      "يتدافعون": 7161,
      "المتسلقين": 7162,
      "انفجار": 7163,
      "بكلتا": 7164,
      "جيدا": 7165,
      "ديوك": 7166,
      "سجائر": 7167,
      "صلعاوتان": 7168,
      "قبلات": 7169,
      "كأسا": 7170,
      "كهربائية": 7171,
      "لبد": 7172,
      "لكنه": 7173,
      "لاتقاط": 7174,
      "مبطن": 7175,
      "نزول": 7176,
      "هادئة": 7177,
      "يوضح": 7178,
      "يفرك": 7179,
      "الارجوحة": 7180,
      "الشوكولاتة": 7181,
      "باللوح": 7182,
      "القذرة": 7183,
      "الجانبية": 7184,
      "للانضمام": 7185,
      "يتسكعون": 7186,
      "محطمة": 7187,
      "محادثات": 7188,
      "وقوفها": 7189,
      "مشتعلة": 7190,
      "تجرها": 7191,
      "المنتجات": 7192,
      "بمفرده": 7193,
      "مكياجها": 7194,
      "وخلفه": 7195,
      "مثقوبة": 7196,
      "المستنقعات": 7197,
      "الراقصين": 7198,
      "أظافرها": 7199,
      "ألسنتهما": 7200,
      "تابعة": 7201,
      "حماماً": 7202,
      "رومية": 7203,
      "رافعة": 7204,
      "سبيدو": 7205,
      "ساكسفون": 7206,
      "قبعتها": 7207,
      "متقاطع": 7208,
      "هاواي": 7209,
      "ولاية": 7210,
      "وراكبي": 7211,
      "يناور": 7212,
      "يهرع": 7213,
      "يفقد": 7214,
      "الابهام": 7215,
      "الياقات": 7216,
      "بالرسومات": 7217,
      "السلحفاة": 7218,
      "الجامعي": 7219,
      "الدربزون": 7220,
      "متصلة": 7221,
      "ويشاهدون": 7222,
      "مقطوعة": 7223,
      "بيجاما": 7224,
      "يطرحان": 7225,
      "يسترخيان": 7226,
      "سبايدرمان": 7227,
      "مواجهة": 7228,
      "بمشروب": 7229,
      "بقميصه": 7230,
      "الإعلانات": 7231,
      "صعودًا": 7232,
      "امتداد": 7233,
      "Red": 7234,
      "آسيا": 7235,
      "أقطاب": 7236,
      "إوزتين": 7237,
      "اجت": 7238,
      "بلعبته": 7239,
      "بشدة": 7240,
      "بوسطن": 7241,
      "تينكربيل": 7242,
      "ثقيلة": 7243,
      "جندول": 7244,
      "جاكسون": 7245,
      "حدوة": 7246,
      "دولفين": 7247,
      "سوبرمان": 7248,
      "غصين": 7249,
      "فلوريدا": 7250,
      "لولبية": 7251,
      "ناعمة": 7252,
      "وجلد": 7253,
      "ولباس": 7254,
      "وهبوطا": 7255,
      "يانكي": 7256,
      "ياخذون": 7257,
      "##شتاين": 7258,
      "الالوان": 7259,
      "الليمون": 7260,
      "مناسبة": 7261,
      "الملاهي": 7262,
      "الأنهار": 7263,
      "بالورود": 7264,
      "بالوسادات": 7265,
      "يتقاسمان": 7266,
      "الصلصال": 7267,
      "الطازج": 7268,
      "ينتفض": 7269,
      "واشنطن": 7270,
      "متماسكة": 7271,
      "ويجرون": 7272,
      "مستعار": 7273,
      "أصحابها": 7274,
      "يلتصق": 7275,
      "اليوغا": 7276,
      "الإلكترونية": 7277,
      "13": 7278,
      "19": 7279,
      "آين": 7280,
      "آلي": 7281,
      "أل": 7282,
      "ألب": 7283,
      "أري": 7284,
      "أيل": 7285,
      "ألم": 7286,
      "أواني": 7287,
      "أمتع": 7288,
      "أزهار": 7289,
      "أراجيح": 7290,
      "أرقام": 7291,
      "أونو": 7292,
      "أحبك": 7293,
      "إج": 7294,
      "إي": 7295,
      "إح": 7296,
      "إثن": 7297,
      "إرض": 7298,
      "إناء": 7299,
      "إعداد": 7300,
      "إطلاق": 7301,
      "إنز": 7302,
      "إلقاء": 7303,
      "إصلاح": 7304,
      "او": 7305,
      "اب": 7306,
      "اﻷ": 7307,
      "ابتسم": 7308,
      "اخرى": 7309,
      "افت": 7310,
      "اسمنت": 7311,
      "امريكية": 7312,
      "ابها": 7313,
      "انبوب": 7314,
      "افريقية": 7315,
      "بو": 7316,
      "بظ": 7317,
      "بُ": 7318,
      "بقف": 7319,
      "برا": 7320,
      "بخص": 7321,
      "بفر": 7322,
      "برج": 7323,
      "بقرب": 7324,
      "باه": 7325,
      "بأس": 7326,
      "بست": 7327,
      "بدينة": 7328,
      "باح": 7329,
      "باق": 7330,
      "بنف": 7331,
      "بصبي": 7332,
      "بومة": 7333,
      "بسترة": 7334,
      "بتح": 7335,
      "بكر": 7336,
      "بفتاة": 7337,
      "بوذ": 7338,
      "بثلاثة": 7339,
      "بفحص": 7340,
      "بقفازات": 7341,
      "بميكروفون": 7342,
      "بنادق": 7343,
      "بسيوف": 7344,
      "تخ": 7345,
      "تال": 7346,
      "ترا": 7347,
      "تمل": 7348,
      "تري": 7349,
      "تبر": 7350,
      "تلون": 7351,
      "تفر": 7352,
      "تبل": 7353,
      "تلال": 7354,
      "تقر": 7355,
      "تبول": 7356,
      "تغط": 7357,
      "تاخ": 7358,
      "تفس": 7359,
      "توت": 7360,
      "تظاهر": 7361,
      "تارك": 7362,
      "توازن": 7363,
      "تاري": 7364,
      "تلعق": 7365,
      "تكس": 7366,
      "تلاعب": 7367,
      "توقع": 7368,
      "تخط": 7369,
      "تخييم": 7370,
      "تصاعد": 7371,
      "تثب": 7372,
      "ثع": 7373,
      "ثانية": 7374,
      "جام": 7375,
      "جارية": 7376,
      "جوي": 7377,
      "جديد": 7378,
      "جاك": 7379,
      "جنون": 7380,
      "حو": 7381,
      "حس": 7382,
      "حار": 7383,
      "حرق": 7384,
      "حشي": 7385,
      "حنف": 7386,
      "حالة": 7387,
      "حصى": 7388,
      "حواف": 7389,
      "حليب": 7390,
      "حواجز": 7391,
      "حصن": 7392,
      "حظيرة": 7393,
      "حشود": 7394,
      "خائ": 7395,
      "خيل": 7396,
      "خيام": 7397,
      "خارقة": 7398,
      "خائفة": 7399,
      "دوار": 7400,
      "دفت": 7401,
      "دلاء": 7402,
      "دجاجة": 7403,
      "دبابي": 7404,
      "درابزون": 7405,
      "رأ": 7406,
      "رُ": 7407,
      "راه": 7408,
      "روت": 7409,
      "رشة": 7410,
      "رقي": 7411,
      "رائع": 7412,
      "رجبي": 7413,
      "ريشة": 7414,
      "رسوم": 7415,
      "زم": 7416,
      "زينة": 7417,
      "زياً": 7418,
      "زخرفة": 7419,
      "زومبي": 7420,
      "سمي": 7421,
      "سائ": 7422,
      "سيل": 7423,
      "سرو": 7424,
      "سكي": 7425,
      "سيات": 7426,
      "سوار": 7427,
      "ساك": 7428,
      "سبار": 7429,
      "سلامة": 7430,
      "سمين": 7431,
      "سواء": 7432,
      "سرعة": 7433,
      "ساطع": 7434,
      "سلاسل": 7435,
      "ساحل": 7436,
      "سعداء": 7437,
      "شق": 7438,
      "شف": 7439,
      "شها": 7440,
      "شارات": 7441,
      "شارب": 7442,
      "شربة": 7443,
      "شقيق": 7444,
      "شالات": 7445,
      "صعب": 7446,
      "صخر": 7447,
      "صنع": 7448,
      "صائم": 7449,
      "صلاة": 7450,
      "صدع": 7451,
      "ضو": 7452,
      "ضما": 7453,
      "ضارة": 7454,
      "طلب": 7455,
      "طيرا": 7456,
      "طبول": 7457,
      "طاق": 7458,
      "طرد": 7459,
      "طواف": 7460,
      "طراز": 7461,
      "طباشير": 7462,
      "طعا": 7463,
      "ظلال": 7464,
      "ظروف": 7465,
      "عاد": 7466,
      "عاك": 7467,
      "عزف": 7468,
      "عاز": 7469,
      "عمامة": 7470,
      "عارض": 7471,
      "عرقلة": 7472,
      "عفريت": 7473,
      "غو": 7474,
      "غرو": 7475,
      "غوص": 7476,
      "غولف": 7477,
      "غاض": 7478,
      "غلاف": 7479,
      "غرين": 7480,
      "غنم": 7481,
      "غارق": 7482,
      "فض": 7483,
      "فح": 7484,
      "فري": 7485,
      "فئة": 7486,
      "فوتوغرافية": 7487,
      "فراشة": 7488,
      "فاخرة": 7489,
      "قي": 7490,
      "قت": 7491,
      "قار": 7492,
      "قفل": 7493,
      "قلة": 7494,
      "قبض": 7495,
      "قذف": 7496,
      "قائمة": 7497,
      "كس": 7498,
      "كئ": 7499,
      "كرو": 7500,
      "كقر": 7501,
      "كابل": 7502,
      "كاش": 7503,
      "كثبان": 7504,
      "كعك": 7505,
      "كنزة": 7506,
      "لاف": 7507,
      "لته": 7508,
      "لكل": 7509,
      "لكي": 7510,
      "لمن": 7511,
      "لتف": 7512,
      "لاطف": 7513,
      "لآخر": 7514,
      "لفحص": 7515,
      "لاند": 7516,
      "لارتداء": 7517,
      "لصاحب": 7518,
      "لجمهور": 7519,
      "مي": 7520,
      "مذ": 7521,
      "مال": 7522,
      "مرا": 7523,
      "مدم": 7524,
      "ممس": 7525,
      "موا": 7526,
      "مبان": 7527,
      "متقط": 7528,
      "ملو": 7529,
      "مجلات": 7530,
      "معبر": 7531,
      "مجلة": 7532,
      "ميني": 7533,
      "مارك": 7534,
      "مواز": 7535,
      "ميناء": 7536,
      "مائلة": 7537,
      "موقد": 7538,
      "ملاحق": 7539,
      "ماراثون": 7540,
      "ممهد": 7541,
      "مارت": 7542,
      "نم": 7543,
      "نخ": 7544,
      "نش": 7545,
      "نائ": 7546,
      "نبع": 7547,
      "نشرة": 7548,
      "نيران": 7549,
      "نوبة": 7550,
      "نجمة": 7551,
      "نهري": 7552,
      "نورس": 7553,
      "نينجا": 7554,
      "نسيج": 7555,
      "هر": 7556,
      "همر": 7557,
      "هام": 7558,
      "هدية": 7559,
      "هولا": 7560,
      "هزل": 7561,
      "هيك": 7562,
      "هائلة": 7563,
      "هرم": 7564,
      "وغ": 7565,
      "ومر": 7566,
      "ومرأة": 7567,
      "وول": 7568,
      "ومو": 7569,
      "ومه": 7570,
      "وتان": 7571,
      "ومال": 7572,
      "وقر": 7573,
      "وست": 7574,
      "وكاميرا": 7575,
      "وكر": 7576,
      "وشيء": 7577,
      "وماع": 7578,
      "وميكروفون": 7579,
      "وقفاز": 7580,
      "وخرز": 7581,
      "وقراءة": 7582,
      "يي": 7583,
      "يطف": 7584,
      "يضم": 7585,
      "يناق": 7586,
      "يلقون": 7587,
      "##وري": 7588,
      "##وهم": 7589,
      "##وامة": 7590,
      "##جير": 7591,
      "##جارية": 7592,
      "##جوة": 7593,
      "##جداف": 7594,
      "##جذب": 7595,
      "##يث": 7596,
      "##يار": 7597,
      "##يحة": 7598,
      "##يهما": 7599,
      "##يدية": 7600,
      "##يئة": 7601,
      "##يزية": 7602,
      "##نى": 7603,
      "##نته": 7604,
      "##نارد": 7605,
      "##ابي": 7606,
      "##اها": 7607,
      "##ادم": 7608,
      "##ايل": 7609,
      "##اسي": 7610,
      "##اكل": 7611,
      "##ازف": 7612,
      "##ايدي": 7613,
      "##اشة": 7614,
      "##امات": 7615,
      "##اكيت": 7616,
      "##سى": 7617,
      "##سفل": 7618,
      "##ساد": 7619,
      "##عق": 7620,
      "##عطف": 7621,
      "##علون": 7622,
      "##عقة": 7623,
      "##عمال": 7624,
      "##عاية": 7625,
      "##عكس": 7626,
      "##عراض": 7627,
      "##رت": 7628,
      "##رار": 7629,
      "##رزة": 7630,
      "##تمر": 7631,
      "##تبر": 7632,
      "##تابة": 7633,
      "##تاح": 7634,
      "##تاز": 7635,
      "##تلس": 7636,
      "##دث": 7637,
      "##دى": 7638,
      "##دغ": 7639,
      "##دان": 7640,
      "##درة": 7641,
      "##دمي": 7642,
      "##دلة": 7643,
      "##دبة": 7644,
      "##دقية": 7645,
      "##داتهم": 7646,
      "##ًة": 7647,
      "##هول": 7648,
      "##هاب": 7649,
      "##هنة": 7650,
      "##هبة": 7651,
      "##هضة": 7652,
      "##ضل": 7653,
      "##ضب": 7654,
      "##ضرة": 7655,
      "##ضور": 7656,
      "##ضنان": 7657,
      "##ضوء": 7658,
      "##ضائع": 7659,
      "##ضراً": 7660,
      "##مض": 7661,
      "##مث": 7662,
      "##مّ": 7663,
      "##معة": 7664,
      "##مها": 7665,
      "##مشي": 7666,
      "##مزي": 7667,
      "##مشة": 7668,
      "##مجمة": 7669,
      "##متعة": 7670,
      "##لئ": 7671,
      "##لؤ": 7672,
      "##لعة": 7673,
      "##لحة": 7674,
      "##لته": 7675,
      "##لوية": 7676,
      "##لمات": 7677,
      "##أن": 7678,
      "##حان": 7679,
      "##حون": 7680,
      "##حابة": 7681,
      "##حالي": 7682,
      "##حطم": 7683,
      "##خير": 7684,
      "##خابات": 7685,
      "##خنان": 7686,
      "##خاذ": 7687,
      "##طأ": 7688,
      "##طول": 7689,
      "##طيل": 7690,
      "##طلال": 7691,
      "##طوان": 7692,
      "##طربة": 7693,
      "##بغ": 7694,
      "##بكة": 7695,
      "##بدون": 7696,
      "##بلات": 7697,
      "##بائن": 7698,
      "##ئات": 7699,
      "##ئًا": 7700,
      "##قار": 7701,
      "##قيرة": 7702,
      "##ثة": 7703,
      "##ثرة": 7704,
      "##ثلة": 7705,
      "##ظف": 7706,
      "##ظتها": 7707,
      "##ظلل": 7708,
      "##زا": 7709,
      "##زاح": 7710,
      "##زارة": 7711,
      "##زائن": 7712,
      "##كد": 7713,
      "##كال": 7714,
      "##كاب": 7715,
      "##كته": 7716,
      "##كاراتيه": 7717,
      "##شو": 7718,
      "##شن": 7719,
      "##شر": 7720,
      "##شم": 7721,
      "##شاء": 7722,
      "##شار": 7723,
      "##شَّ": 7724,
      "##فاح": 7725,
      "##غذ": 7726,
      "##غرة": 7727,
      "##غاني": 7728,
      "##غيتي": 7729,
      "##ّي": 7730,
      "##ّل": 7731,
      "##ُّ": 7732,
      "##ّنة": 7733,
      "##ّماً": 7734,
      "##ذن": 7735,
      "##ذير": 7736,
      "##ذوب": 7737,
      "##ذلك": 7738,
      "##ؤون": 7739,
      "##ؤولين": 7740,
      "##ؤلؤ": 7741,
      "##oll": 7742,
      "##la": 7743,
      "##es": 7744,
      "##bull": 7745,
      "##bla": 7746,
      "##des": 7747,
      "##ha": 7748,
      "الار": 7749,
      "الني": 7750,
      "الوح": 7751,
      "اليه": 7752,
      "الورا": 7753,
      "اللات": 7754,
      "الهي": 7755,
      "الوتر": 7756,
      "الراكب": 7757,
      "الدمى": 7758,
      "القفاز": 7759,
      "الضيق": 7760,
      "الوقت": 7761,
      "##انع": 7762,
      "##انه": 7763,
      "##انير": 7764,
      "##انها": 7765,
      "##جلوس": 7766,
      "##جليزية": 7767,
      "##بيح": 7768,
      "##الأ": 7769,
      "##الان": 7770,
      "##الكة": 7771,
      "##المة": 7772,
      "##اليت": 7773,
      "##التف": 7774,
      "منهن": 7775,
      "##لبه": 7776,
      "يرن": 7777,
      "يرضع": 7778,
      "يربط": 7779,
      "##دير": 7780,
      "##ديمي": 7781,
      "##ديًا": 7782,
      "##ارا": 7783,
      "##ارًا": 7784,
      "كلبهم": 7785,
      "كلبتان": 7786,
      "كلباً": 7787,
      "المب": 7788,
      "المتق": 7789,
      "المبتس": 7790,
      "المهم": 7791,
      "المقب": 7792,
      "المعر": 7793,
      "المنس": 7794,
      "الماك": 7795,
      "المتقط": 7796,
      "المظهر": 7797,
      "المبط": 7798,
      "الماس": 7799,
      "المكتب": 7800,
      "المضم": 7801,
      "المملوء": 7802,
      "المائدة": 7803,
      "المئزر": 7804,
      "الممهد": 7805,
      "المذهلة": 7806,
      "المئات": 7807,
      "##مراة": 7808,
      "##ونهما": 7809,
      "##عبة": 7810,
      "##لاع": 7811,
      "##لامي": 7812,
      "##لائه": 7813,
      "##يري": 7814,
      "##يرل": 7815,
      "##يرين": 7816,
      "##مايل": 7817,
      "##ماهير": 7818,
      "معركة": 7819,
      "معارض": 7820,
      "معرقلة": 7821,
      "معجبون": 7822,
      "معالجة": 7823,
      "##اتا": 7824,
      "##اتب": 7825,
      "الأمي": 7826,
      "الأحد": 7827,
      "الأكل": 7828,
      "الأسمنت": 7829,
      "الألواح": 7830,
      "الأذرع": 7831,
      "الأضواء": 7832,
      "الأجنحة": 7833,
      "الأجانب": 7834,
      "الأنثى": 7835,
      "الأجهزة": 7836,
      "الأذن": 7837,
      "##راث": 7838,
      "##راوات": 7839,
      "##راولة": 7840,
      "##ودن": 7841,
      "##ودع": 7842,
      "##لعبان": 7843,
      "##لجات": 7844,
      "الكعب": 7845,
      "الكلا": 7846,
      "الكيس": 7847,
      "الكهرب": 7848,
      "الكؤوس": 7849,
      "الكعك": 7850,
      "الكولي": 7851,
      "الكفوف": 7852,
      "الكتابة": 7853,
      "الكهنة": 7854,
      "##فلتين": 7855,
      "يركلان": 7856,
      "##ولون": 7857,
      "##ولكا": 7858,
      "الشرب": 7859,
      "الشقة": 7860,
      "الشبح": 7861,
      "الشقر": 7862,
      "الشكل": 7863,
      "الشديدة": 7864,
      "الشقرا": 7865,
      "الشاطىء": 7866,
      "الشراعية": 7867,
      "الشبكة": 7868,
      "##ربط": 7869,
      "بالبي": 7870,
      "بالات": 7871,
      "بالخر": 7872,
      "بالبر": 7873,
      "بالقر": 7874,
      "بالكلب": 7875,
      "بالاح": 7876,
      "بالبض": 7877,
      "بالنظارات": 7878,
      "بالسيارات": 7879,
      "بالجم": 7880,
      "بالبخ": 7881,
      "بالتح": 7882,
      "بالجليد": 7883,
      "بالنباتات": 7884,
      "بالزانة": 7885,
      "بالآلات": 7886,
      "بالطيور": 7887,
      "بالحركات": 7888,
      "بالايدي": 7889,
      "بالضوء": 7890,
      "بالالتف": 7891,
      "يتبا": 7892,
      "يتواج": 7893,
      "يتصور": 7894,
      "يتفحص": 7895,
      "يتلوى": 7896,
      "يتصاعد": 7897,
      "يتطاير": 7898,
      "##نائ": 7899,
      "##ناصر": 7900,
      "##نائية": 7901,
      "##ملان": 7902,
      "##ميمة": 7903,
      "##ريش": 7904,
      "##ريين": 7905,
      "##رقل": 7906,
      "##ابر": 7907,
      "طفله": 7908,
      "طفليها": 7909,
      "العض": 7910,
      "العاص": 7911,
      "العراء": 7912,
      "العيون": 7913,
      "العصور": 7914,
      "العارض": 7915,
      "العصير": 7916,
      "العفريت": 7917,
      "العرقية": 7918,
      "العرائس": 7919,
      "العشاء": 7920,
      "##نيات": 7921,
      "يحتس": 7922,
      "يحوم": 7923,
      "يحضر": 7924,
      "يحارب": 7925,
      "يحتف": 7926,
      "يحرك": 7927,
      "يحصلون": 7928,
      "يحدث": 7929,
      "##مورة": 7930,
      "##موسة": 7931,
      "##مودين": 7932,
      "السجل": 7933,
      "السمر": 7934,
      "السرج": 7935,
      "الساح": 7936,
      "السجلات": 7937,
      "السهرة": 7938,
      "الساقطة": 7939,
      "السحالي": 7940,
      "يسعون": 7941,
      "شخصاً": 7942,
      "شخصيات": 7943,
      "أبيضا": 7944,
      "أبيضين": 7945,
      "الروم": 7946,
      "الروك": 7947,
      "الرحلة": 7948,
      "الرواق": 7949,
      "الرذاذ": 7950,
      "الرومي": 7951,
      "الرمث": 7952,
      "الركاب": 7953,
      "الصين": 7954,
      "الصقر": 7955,
      "الصلع": 7956,
      "الصنع": 7957,
      "الصالة": 7958,
      "الصيني": 7959,
      "الصراف": 7960,
      "الصناعية": 7961,
      "الصعبة": 7962,
      "##هاوش": 7963,
      "##هاجمة": 7964,
      "##هائي": 7965,
      "الباص": 7966,
      "البطة": 7967,
      "البنادق": 7968,
      "البولكا": 7969,
      "أسودا": 7970,
      "التح": 7971,
      "التأرجح": 7972,
      "التوت": 7973,
      "التلو": 7974,
      "التوقف": 7975,
      "التمويه": 7976,
      "التمساح": 7977,
      "التوليب": 7978,
      "التجارية": 7979,
      "التفاح": 7980,
      "النادل": 7981,
      "النادلة": 7982,
      "تربي": 7983,
      "ترشد": 7984,
      "تروي": 7985,
      "ترحل": 7986,
      "##شبكة": 7987,
      "الطير": 7988,
      "الطوف": 7989,
      "الطاولات": 7990,
      "الطائفة": 7991,
      "مجال": 7992,
      "مجدل": 7993,
      "مجوهرات": 7994,
      "مجاور": 7995,
      "اثنتان": 7996,
      "الثلاجة": 7997,
      "القت": 7998,
      "القلم": 7999,
      "القوية": 8000,
      "القريب": 8001,
      "القرع": 8002,
      "القلادة": 8003,
      "القائمة": 8004,
      "القليل": 8005,
      "القزم": 8006,
      "##ورد": 8007,
      "##ورية": 8008,
      "##وردية": 8009,
      "ينت": 8010,
      "ينخر": 8011,
      "ينحدر": 8012,
      "ينزه": 8013,
      "ينثر": 8014,
      "ينتقل": 8015,
      "ينبوع": 8016,
      "##برغر": 8017,
      "الخف": 8018,
      "الخبز": 8019,
      "الخليج": 8020,
      "الخلوية": 8021,
      "بنيا": 8022,
      "بنيتان": 8023,
      "يمدون": 8024,
      "يمضي": 8025,
      "يمثلون": 8026,
      "يقلع": 8027,
      "يقمن": 8028,
      "يقدمون": 8029,
      "يقطر": 8030,
      "يركبها": 8031,
      "##رجع": 8032,
      "والت": 8033,
      "والأس": 8034,
      "والفت": 8035,
      "والصبي": 8036,
      "والبط": 8037,
      "واللاعب": 8038,
      "والقبعات": 8039,
      "والدها": 8040,
      "والقفازات": 8041,
      "والذهاب": 8042,
      "والسيوف": 8043,
      "والرجال": 8044,
      "والبالغين": 8045,
      "##ارعين": 8046,
      "الجميل": 8047,
      "الجمجمة": 8048,
      "الجماهير": 8049,
      "الحب": 8050,
      "الحرف": 8051,
      "الحارس": 8052,
      "الحروف": 8053,
      "الحجلة": 8054,
      "الحصيرة": 8055,
      "الحجري": 8056,
      "الحكام": 8057,
      "الحملان": 8058,
      "##افز": 8059,
      "بجهد": 8060,
      "بجهاز": 8061,
      "بجولة": 8062,
      "واقي": 8063,
      "##امق": 8064,
      "##امود": 8065,
      "برية": 8066,
      "برفع": 8067,
      "برأس": 8068,
      "برسومات": 8069,
      "الدب": 8070,
      "الدول": 8071,
      "الدعم": 8072,
      "الدلاء": 8073,
      "الداخلي": 8074,
      "ترتدين": 8075,
      "ترتديها": 8076,
      "تحك": 8077,
      "تحول": 8078,
      "تحذير": 8079,
      "##ضروات": 8080,
      "وأخرى": 8081,
      "وأشياء": 8082,
      "وأقرا": 8083,
      "وأوشحة": 8084,
      "وأنثى": 8085,
      "وأقدام": 8086,
      "##تقيم": 8087,
      "##تقيان": 8088,
      "##تقاتلان": 8089,
      "الفن": 8090,
      "الفري": 8091,
      "الفرق": 8092,
      "الفوا": 8093,
      "الفضي": 8094,
      "الفضية": 8095,
      "الفضة": 8096,
      "الفصل": 8097,
      "الفندق": 8098,
      "##وجة": 8099,
      "النمر": 8100,
      "النحت": 8101,
      "النصر": 8102,
      "النهاية": 8103,
      "النقود": 8104,
      "النحل": 8105,
      "النسيج": 8106,
      "النهائي": 8107,
      "##شيلو": 8108,
      "##مسان": 8109,
      "##اجران": 8110,
      "متما": 8111,
      "متأرجح": 8112,
      "متمسك": 8113,
      "متدحرج": 8114,
      "متزام": 8115,
      "متوازن": 8116,
      "متناث": 8117,
      "متناثر": 8118,
      "متدلية": 8119,
      "##مهما": 8120,
      "##يلو": 8121,
      "##يلي": 8122,
      "ويتص": 8123,
      "ويتع": 8124,
      "ويؤدي": 8125,
      "ويصل": 8126,
      "ويديها": 8127,
      "ويتسلق": 8128,
      "ويقود": 8129,
      "ويتقاتلان": 8130,
      "مسيرة": 8131,
      "مسافة": 8132,
      "مسلم": 8133,
      "مسنان": 8134,
      "مسطحة": 8135,
      "مستقيم": 8136,
      "##كبار": 8137,
      "للع": 8138,
      "للز": 8139,
      "للهو": 8140,
      "للماء": 8141,
      "للالتقاط": 8142,
      "للدراجة": 8143,
      "للشرب": 8144,
      "للطق": 8145,
      "للكاراتيه": 8146,
      "كبيرين": 8147,
      "##اصرين": 8148,
      "ورسومات": 8149,
      "أسلاك": 8150,
      "أسودين": 8151,
      "أسطوان": 8152,
      "لاعبون": 8153,
      "لاعبات": 8154,
      "مقا": 8155,
      "مقصور": 8156,
      "تسرع": 8157,
      "تسخن": 8158,
      "تسلية": 8159,
      "تسطع": 8160,
      "تسبب": 8161,
      "تستقل": 8162,
      "تسليم": 8163,
      "تسخير": 8164,
      "##سيكية": 8165,
      "سياحية": 8166,
      "بيت": 8167,
      "يتسباق": 8168,
      "##اراته": 8169,
      "##ليمي": 8170,
      "المتنافس": 8171,
      "المتدحرج": 8172,
      "المتجم": 8173,
      "المتوقفة": 8174,
      "المتناثر": 8175,
      "المتدفقة": 8176,
      "يشعر": 8177,
      "يشرف": 8178,
      "يشوي": 8179,
      "يشكلون": 8180,
      "يشتري": 8181,
      "##روع": 8182,
      "يطعم": 8183,
      "الزبائن": 8184,
      "الغر": 8185,
      "الغط": 8186,
      "الغريبة": 8187,
      "الغنم": 8188,
      "الغطاء": 8189,
      "الغسيل": 8190,
      "الغامق": 8191,
      "رايات": 8192,
      "راعية": 8193,
      "المحل": 8194,
      "المحفو": 8195,
      "المحشوة": 8196,
      "##بحار": 8197,
      "##بحيرة": 8198,
      "السباغيتي": 8199,
      "أطفالها": 8200,
      "تنبع": 8201,
      "تندفع": 8202,
      "تنظيف": 8203,
      "تنورات": 8204,
      "تنكري": 8205,
      "تنجذب": 8206,
      "تنعكس": 8207,
      "تنانير": 8208,
      "كلابهما": 8209,
      "##حدرات": 8210,
      "يدق": 8211,
      "يدرد": 8212,
      "تجلسن": 8213,
      "ذوو": 8214,
      "##صاد": 8215,
      "##صابيح": 8216,
      "تتأ": 8217,
      "تتنزه": 8218,
      "تترك": 8219,
      "تتفحص": 8220,
      "تتابع": 8221,
      "تتموضع": 8222,
      "تتلاكمان": 8223,
      "تتدفق": 8224,
      "تتمرن": 8225,
      "تتجاهل": 8226,
      "تتحطم": 8227,
      "خارجيًا": 8228,
      "##رفص": 8229,
      "##رفين": 8230,
      "##رفيه": 8231,
      "##مالات": 8232,
      "عنوان": 8233,
      "بحر": 8234,
      "بحث": 8235,
      "بحرية": 8236,
      "دراجتين": 8237,
      "دراجتهما": 8238,
      "والأخرى": 8239,
      "والأوراق": 8240,
      "والأوساخ": 8241,
      "والأغطية": 8242,
      "والأعلام": 8243,
      "والأزهار": 8244,
      "والأعشاب": 8245,
      "يجذب": 8246,
      "يجدان": 8247,
      "##سكي": 8248,
      "##ستر": 8249,
      "وجهاز": 8250,
      "وجاكيت": 8251,
      "يصد": 8252,
      "يصتاد": 8253,
      "##ويت": 8254,
      "##ويات": 8255,
      "##واع": 8256,
      "##واخ": 8257,
      "##واسي": 8258,
      "بعص": 8259,
      "بعرض": 8260,
      "بعلم": 8261,
      "بعنف": 8262,
      "بعظمة": 8263,
      "بعناية": 8264,
      "بعامود": 8265,
      "##ولاً": 8266,
      "شابًا": 8267,
      "يتزلجن": 8268,
      "مقعده": 8269,
      "الجليدية": 8270,
      "رأسهما": 8271,
      "جداراً": 8272,
      "الأرضيات": 8273,
      "تمضغ": 8274,
      "طريقًا": 8275,
      "وتضع": 8276,
      "وتنت": 8277,
      "وتلبس": 8278,
      "وتشير": 8279,
      "وتتسلق": 8280,
      "وتبدو": 8281,
      "وتغني": 8282,
      "وتمشي": 8283,
      "وتأن": 8284,
      "الخارجية": 8285,
      "شعرهما": 8286,
      "محب": 8287,
      "محلي": 8288,
      "محرك": 8289,
      "محصور": 8290,
      "وشاب": 8291,
      "وشلال": 8292,
      "يعط": 8293,
      "يعرقل": 8294,
      "وقع": 8295,
      "وقود": 8296,
      "وقمصان": 8297,
      "وقلادة": 8298,
      "##فساتين": 8299,
      "وكلبًا": 8300,
      "المرح": 8301,
      "المرصوف": 8302,
      "مشاة": 8303,
      "مشعر": 8304,
      "مشرد": 8305,
      "مشجعة": 8306,
      "مشذبة": 8307,
      "##احنة": 8308,
      "أنها": 8309,
      "أنهما": 8310,
      "ذاتية": 8311,
      "مرعب": 8312,
      "مرتب": 8313,
      "مرتا": 8314,
      "مرئية": 8315,
      "مرسومة": 8316,
      "مرتفعة": 8317,
      "الآلة": 8318,
      "الآلي": 8319,
      "بخيط": 8320,
      "بخاتم": 8321,
      "مسارًا": 8322,
      "##معين": 8323,
      "متزلجي": 8324,
      "متزلجون": 8325,
      "هواء": 8326,
      "##سمتان": 8327,
      "صخرياً": 8328,
      "تقديمي": 8329,
      "##يتها": 8330,
      "متسخة": 8331,
      "##وسائد": 8332,
      "##عبيرات": 8333,
      "##اقبة": 8334,
      "بجوارها": 8335,
      "##جارف": 8336,
      "يراقبها": 8337,
      "قاربهم": 8338,
      "مزخرفة": 8339,
      "موشم": 8340,
      "وسقط": 8341,
      "وسلسلة": 8342,
      "للقيام": 8343,
      "للقرون": 8344,
      "الصغيرتان": 8345,
      "بأزهار": 8346,
      "زوجته": 8347,
      "وبج": 8348,
      "وبجانب": 8349,
      "وببغ": 8350,
      "حيتان": 8351,
      "تجرف": 8352,
      "تجميل": 8353,
      "تجديف": 8354,
      "تتسكع": 8355,
      "المنتصف": 8356,
      "المنضدة": 8357,
      "المنعطف": 8358,
      "ذراعهما": 8359,
      "كرنك": 8360,
      "##جرى": 8361,
      "بدورة": 8362,
      "بداخل": 8363,
      "اللؤلؤ": 8364,
      "بمظ": 8365,
      "بمنط": 8366,
      "بمعدات": 8367,
      "بمجداف": 8368,
      "عقبات": 8369,
      "مكسيكي": 8370,
      "مكالمة": 8371,
      "مخيف": 8372,
      "مخيفة": 8373,
      "مخفي": 8374,
      "مختبر": 8375,
      "مخلبه": 8376,
      "يرقدون": 8377,
      "شاطئية": 8378,
      "الأرجوانية": 8379,
      "بهدو": 8380,
      "عالم": 8381,
      "مصرف": 8382,
      "مصنوعة": 8383,
      "##فتش": 8384,
      "تلهو": 8385,
      "تلسكوب": 8386,
      "تعلم": 8387,
      "تعكس": 8388,
      "طائرات": 8389,
      "طويلان": 8390,
      "##يتاره": 8391,
      "المسن": 8392,
      "المسيرة": 8393,
      "المسنة": 8394,
      "المسارات": 8395,
      "المسربة": 8396,
      "المسابقة": 8397,
      "المسابقات": 8398,
      "مطبوع": 8399,
      "مطرزة": 8400,
      "مظاهرة": 8401,
      "##وتة": 8402,
      "##وتار": 8403,
      "يتجاه": 8404,
      "يتجاوز": 8405,
      "يلصق": 8406,
      "يلهث": 8407,
      "##ندر": 8408,
      "##ندل": 8409,
      "بشلال": 8410,
      "بشرائط": 8411,
      "بشاحنة": 8412,
      "كتابة": 8413,
      "كتيب": 8414,
      "كتابي": 8415,
      "اليقطين": 8416,
      "الاوز": 8417,
      "الايدي": 8418,
      "بقية": 8419,
      "بقارب": 8420,
      "بقلم": 8421,
      "بقناع": 8422,
      "بقوة": 8423,
      "بقماش": 8424,
      "بقضبان": 8425,
      "بقليل": 8426,
      "بقدمي": 8427,
      "##عمار": 8428,
      "وحل": 8429,
      "وحول": 8430,
      "وحلق": 8431,
      "وحبل": 8432,
      "وحقائب": 8433,
      "وحاجبين": 8434,
      "تدرس": 8435,
      "تدافع": 8436,
      "تداعب": 8437,
      "حبلين": 8438,
      "يهمس": 8439,
      "##ريرية": 8440,
      "سيبي": 8441,
      "سيوف": 8442,
      "تطلب": 8443,
      "##دوير": 8444,
      "تشق": 8445,
      "جرفاً": 8446,
      "الإصبع": 8447,
      "الإبها": 8448,
      "الإيماءات": 8449,
      "الإبادة": 8450,
      "الإسمنتي": 8451,
      "كلتا": 8452,
      "نظام": 8453,
      "##ظهره": 8454,
      "متسابقو": 8455,
      "متسابقين": 8456,
      "سائقا": 8457,
      "يبقي": 8458,
      "يبصق": 8459,
      "##بعه": 8460,
      "الهندي": 8461,
      "الهندية": 8462,
      "الهنود": 8463,
      "الهالوين": 8464,
      "الهراوات": 8465,
      "المطل": 8466,
      "السياح": 8467,
      "تصور": 8468,
      "تصارع": 8469,
      "تصدر": 8470,
      "تصريف": 8471,
      "وطفلها": 8472,
      "حجم": 8473,
      "بالغة": 8474,
      "قفزات": 8475,
      "فريقين": 8476,
      "بطن": 8477,
      "بطائرة": 8478,
      "بطاطس": 8479,
      "بطريقة": 8480,
      "بطاطا": 8481,
      "ليمسك": 8482,
      "ليأخذ": 8483,
      "ليجلب": 8484,
      "ليصنع": 8485,
      "يغمر": 8486,
      "يغنين": 8487,
      "يغذي": 8488,
      "يرشق": 8489,
      "يرشّ": 8490,
      "بالأحمر": 8491,
      "بالأشياء": 8492,
      "بالأعشاب": 8493,
      "الرياح": 8494,
      "##سانه": 8495,
      "##لومات": 8496,
      "بنزهة": 8497,
      "##نبق": 8498,
      "##نانه": 8499,
      "أكثر": 8500,
      "أكورديون": 8501,
      "متسلقين": 8502,
      "المشرق": 8503,
      "المشروب": 8504,
      "المشجعة": 8505,
      "المشاركة": 8506,
      "يخرجون": 8507,
      "يفعله": 8508,
      "منزلهم": 8509,
      "قصيرا": 8510,
      "يعضه": 8511,
      "يعضّان": 8512,
      "##اعي": 8513,
      "تستريح": 8514,
      "تسترد": 8515,
      "عرضا": 8516,
      "التلسكوب": 8517,
      "للحشود": 8518,
      "خطاب": 8519,
      "خطوة": 8520,
      "خيوط": 8521,
      "خيولاً": 8522,
      "مدافع": 8523,
      "مدبب": 8524,
      "مدببة": 8525,
      "مستاء": 8526,
      "مستودع": 8527,
      "القفزات": 8528,
      "حاجزًا": 8529,
      "شاحنات": 8530,
      "الأسد": 8531,
      "الأسرة": 8532,
      "الأساسية": 8533,
      "ساقيها": 8534,
      "مسنات": 8535,
      "مسنبل": 8536,
      "محاطا": 8537,
      "محاطين": 8538,
      "عائلية": 8539,
      "عائلته": 8540,
      "يخلق": 8541,
      "يخدم": 8542,
      "يخلع": 8543,
      "يخدش": 8544,
      "يختلس": 8545,
      "ينفد": 8546,
      "ينفجر": 8547,
      "حافلتين": 8548,
      "حاويات": 8549,
      "ومت": 8550,
      "ومد": 8551,
      "ومق": 8552,
      "ومهر": 8553,
      "ومتعد": 8554,
      "ومقود": 8555,
      "ومجموعة": 8556,
      "المقابل": 8557,
      "المقهى": 8558,
      "المقابض": 8559,
      "المقاهي": 8560,
      "##رعان": 8561,
      "المعلم": 8562,
      "المعشبة": 8563,
      "المعلومات": 8564,
      "يتجولان": 8565,
      "مفتوحًا": 8566,
      "ملمع": 8567,
      "ملهى": 8568,
      "ملثم": 8569,
      "##فرجون": 8570,
      "يدفعه": 8571,
      "يشاهدونه": 8572,
      "بسلم": 8573,
      "بسيارة": 8574,
      "بسبب": 8575,
      "بسحابة": 8576,
      "ممتل": 8577,
      "ممطرة": 8578,
      "هاتفًا": 8579,
      "مضمدة": 8580,
      "وعلى": 8581,
      "وعربة": 8582,
      "وعيون": 8583,
      "وعازف": 8584,
      "##وشك": 8585,
      "##وشاح": 8586,
      "ويرش": 8587,
      "ويرمي": 8588,
      "ويرشون": 8589,
      "ويرقص": 8590,
      "التقبيل": 8591,
      "التقليدي": 8592,
      "التقليدية": 8593,
      "جلد": 8594,
      "جلدياً": 8595,
      "حفاضة": 8596,
      "درجتين": 8597,
      "وخوذات": 8598,
      "وخمسة": 8599,
      "وخليج": 8600,
      "يسحبه": 8601,
      "إليهما": 8602,
      "صندل": 8603,
      "ورقيًا": 8604,
      "ورقيقة": 8605,
      "يتبعان": 8606,
      "تمثالين": 8607,
      "##تبورد": 8608,
      "##خدمون": 8609,
      "يشيرون": 8610,
      "صندوقا": 8611,
      "صندوقه": 8612,
      "يؤدين": 8613,
      "بلغة": 8614,
      "وله": 8615,
      "ولكن": 8616,
      "ولسانه": 8617,
      "رياضيين": 8618,
      "كانا": 8619,
      "للأشخاص": 8620,
      "تغلق": 8621,
      "تغرق": 8622,
      "تغمس": 8623,
      "تغذي": 8624,
      "حذاءه": 8625,
      "حذاءها": 8626,
      "بالملابس": 8627,
      "بالمدينة": 8628,
      "بالمصور": 8629,
      "بالمزمار": 8630,
      "تجريان": 8631,
      "أجلها": 8632,
      "إطارًا": 8633,
      "طوفان": 8634,
      "طوفهم": 8635,
      "المصنوع": 8636,
      "لصنع": 8637,
      "##تحي": 8638,
      "بالحمام": 8639,
      "بالحبل": 8640,
      "الفريقين": 8641,
      "ويبتسمن": 8642,
      "مشمسة": 8643,
      "المتسوق": 8644,
      "المتسخين": 8645,
      "يتزحلقون": 8646,
      "##ابلين": 8647,
      "يقاتالان": 8648,
      "ويتحدثن": 8649,
      "ويتبعه": 8650,
      "أنبوبًا": 8651,
      "شتاء": 8652,
      "الانطلاق": 8653,
      "السيجار": 8654,
      "السيوف": 8655,
      "موكبًا": 8656,
      "انتشار": 8657,
      "قرصا": 8658,
      "قرميد": 8659,
      "يظهرون": 8660,
      "الضغط": 8661,
      "الضفة": 8662,
      "المراهقات": 8663,
      "اشارة": 8664,
      "حائطًا": 8665,
      "عدواني": 8666,
      "مصارعان": 8667,
      "باي": 8668,
      "بامرأة": 8669,
      "باقة": 8670,
      "دلوًا": 8671,
      "لتلقي": 8672,
      "القرن": 8673,
      "القرون": 8674,
      "اللاعبون": 8675,
      "رقص": 8676,
      "رقصة": 8677,
      "تحاولان": 8678,
      "قطارًا": 8679,
      "مغني": 8680,
      "مغبر": 8681,
      "مغنية": 8682,
      "مغمورة": 8683,
      "البطريق": 8684,
      "البطولة": 8685,
      "لمبنى": 8686,
      "لمحاولة": 8687,
      "لمهاجمة": 8688,
      "مربعة": 8689,
      "مربعات": 8690,
      "##حتجاج": 8691,
      "ترميه": 8692,
      "جالساتان": 8693,
      "سحبهما": 8694,
      "للتو": 8695,
      "للتنس": 8696,
      "للتحدث": 8697,
      "مقوده": 8698,
      "يدخنون": 8699,
      "الأسفلت": 8700,
      "رسمت": 8701,
      "سكك": 8702,
      "سكوبا": 8703,
      "صيدلية": 8704,
      "لأحد": 8705,
      "لأمريكا": 8706,
      "ميكروفونًا": 8707,
      "وبنطال": 8708,
      "ومعاطف": 8709,
      "##وكولاتة": 8710,
      "##نشطة": 8711,
      "منقاره": 8712,
      "وتنزلق": 8713,
      "عصي": 8714,
      "عصري": 8715,
      "السكوتر": 8716,
      "السكوبا": 8717,
      "يمضغان": 8718,
      "ويقفان": 8719,
      "ويمسكان": 8720,
      "ويمسكون": 8721,
      "للمبنى": 8722,
      "للملاكمة": 8723,
      "##رافه": 8724,
      "بدراجاتهم": 8725,
      "ينفضان": 8726,
      "عضو": 8727,
      "عضلات": 8728,
      "يكسر": 8729,
      "##زونا": 8730,
      "المزيف": 8731,
      "المزمار": 8732,
      "الموجود": 8733,
      "الأقواس": 8734,
      "الأقنعة": 8735,
      "مظللة": 8736,
      "مظلته": 8737,
      "##صطياد": 8738,
      "ترفعان": 8739,
      "وشورتاً": 8740,
      "الاستعداد": 8741,
      "الاستماع": 8742,
      "الاستلقاء": 8743,
      "الاستوديو": 8744,
      "أمها": 8745,
      "لحاف": 8746,
      "لحضور": 8747,
      "ويدور": 8748,
      "يشاركن": 8749,
      "مكتبي": 8750,
      "مكتمل": 8751,
      "مكتبة": 8752,
      "كتفها": 8753,
      "ملتحان": 8754,
      "إعجاب": 8755,
      "رؤية": 8756,
      "قادمة": 8757,
      "قادمون": 8758,
      "##دره": 8759,
      "الهائ": 8760,
      "الفروع": 8761,
      "بالتزحلق": 8762,
      "بالتمارين": 8763,
      "مقلمة": 8764,
      "تقودان": 8765,
      "بتناول": 8766,
      "بتجديف": 8767,
      "بتنظيف": 8768,
      "حادا": 8769,
      "غيتاره": 8770,
      "ليلحق": 8771,
      "ناريتين": 8772,
      "المجموعة": 8773,
      "المجاذ": 8774,
      "بالعلم": 8775,
      "بالعناصر": 8776,
      "بالطعام": 8777,
      "بالطباشير": 8778,
      "محمولة": 8779,
      "أجش": 8780,
      "تعبران": 8781,
      "كشف": 8782,
      "نائمًا": 8783,
      "يحلقون": 8784,
      "البقع": 8785,
      "تدفعه": 8786,
      "ولدًا": 8787,
      "دافئ": 8788,
      "غامضة": 8789,
      "لونها": 8790,
      "لمساعدة": 8791,
      "##كسرة": 8792,
      "الأمتعة": 8793,
      "الأميركي": 8794,
      "##رائح": 8795,
      "ينبحان": 8796,
      "يقتربان": 8797,
      "يقتربون": 8798,
      "والملابس": 8799,
      "والمباني": 8800,
      "والمشاة": 8801,
      "والمحيط": 8802,
      "أسنانهما": 8803,
      "وشخصان": 8804,
      "يحتضنون": 8805,
      "بصح": 8806,
      "بصبر": 8807,
      "بصناديق": 8808,
      "بصاروخ": 8809,
      "بصدره": 8810,
      "يهرولون": 8811,
      "الأحرف": 8812,
      "الأحجام": 8813,
      "بالكمان": 8814,
      "بالكامل": 8815,
      "ضخمًا": 8816,
      "أختها": 8817,
      "أخوه": 8818,
      "أخريات": 8819,
      "أخضراً": 8820,
      "اصطاد": 8821,
      "اصطناعي": 8822,
      "دبًا": 8823,
      "ظهورهن": 8824,
      "لسباق": 8825,
      "لسماع": 8826,
      "لكلبها": 8827,
      "يلفون": 8828,
      "يبحرون": 8829,
      "الخرطوم": 8830,
      "الواقي": 8831,
      "الأمريكيون": 8832,
      "يتشاجران": 8833,
      "يمتثلان": 8834,
      "سياراة": 8835,
      "وعاءًا": 8836,
      "جنباً": 8837,
      "ببعضهم": 8838,
      "خفاش": 8839,
      "ضوءًا": 8840,
      "مؤتمر": 8841,
      "منتج": 8842,
      "بالصخور": 8843,
      "الفقاعة": 8844,
      "ويسبح": 8845,
      "يطاردانه": 8846,
      "وتنظران": 8847,
      "مخروطية": 8848,
      "جريانه": 8849,
      "لعرض": 8850,
      "لعصا": 8851,
      "لدفع": 8852,
      "لإظهار": 8853,
      "وابنه": 8854,
      "وابتسامة": 8855,
      "الملاكم": 8856,
      "والبنات": 8857,
      "ويضعان": 8858,
      "ينفخون": 8859,
      "بكومة": 8860,
      "باراك": 8861,
      "دخانًا": 8862,
      "كثيب": 8863,
      "وآخرون": 8864,
      "البدلاء": 8865,
      "متعلق": 8866,
      "ويستمع": 8867,
      "ويستخدمون": 8868,
      "انزلق": 8869,
      "بفم": 8870,
      "جزيرة": 8871,
      "كلابين": 8872,
      "ويلوح": 8873,
      "##تلط": 8874,
      "##فريقي": 8875,
      "بالسلسلة": 8876,
      "بالسياج": 8877,
      "بالسباحة": 8878,
      "بالرغ": 8879,
      "تتمتعان": 8880,
      "يجرفان": 8881,
      "يصارعون": 8882,
      "المصورين": 8883,
      "أحضان": 8884,
      "أحجام": 8885,
      "أغمق": 8886,
      "بقطع": 8887,
      "بقطب": 8888,
      "ثورًا": 8889,
      "جواره": 8890,
      "خصره": 8891,
      "صديقهم": 8892,
      "مموه": 8893,
      "نقالة": 8894,
      "والقبعة": 8895,
      "الفستان": 8896,
      "السباحون": 8897,
      "يصرخون": 8898,
      "محترق": 8899,
      "مزيفين": 8900,
      "المشجعون": 8901,
      "تستلقيان": 8902,
      "يحتفلون": 8903,
      "جميعهم": 8904,
      "أدواتهم": 8905,
      "جسمه": 8906,
      "فناني": 8907,
      "لوضع": 8908,
      "وطائرة": 8909,
      "ووشم": 8910,
      "الرابض": 8911,
      "الماضي": 8912,
      "بالقوارب": 8913,
      "بالفيديو": 8914,
      "بالفراولة": 8915,
      "يتكلمون": 8916,
      "التعليمي": 8917,
      "القديس": 8918,
      "القديم": 8919,
      "بيجامة": 8920,
      "الزلاجة": 8921,
      "راسه": 8922,
      "خيولًا": 8923,
      "الرياضيين": 8924,
      "موسيقيين": 8925,
      "سكوتره": 8926,
      "ببطء": 8927,
      "تُأرجح": 8928,
      "جناحيه": 8929,
      "خدعه": 8930,
      "رفوف": 8931,
      "رفيع": 8932,
      "ركبة": 8933,
      "رسمياً": 8934,
      "سيرهم": 8935,
      "سيفاً": 8936,
      "للجبال": 8937,
      "وزجاج": 8938,
      "##نزول": 8939,
      "المبارز": 8940,
      "المبارزين": 8941,
      "ترتاح": 8942,
      "ترتكز": 8943,
      "مجدافه": 8944,
      "مجدافًا": 8945,
      "والحشد": 8946,
      "وأسمر": 8947,
      "وأساور": 8948,
      "ويمشون": 8949,
      "ويضحكون": 8950,
      "يشقون": 8951,
      "وتضحكان": 8952,
      "محفظتها": 8953,
      "مطاطي": 8954,
      "مطاطيًا": 8955,
      "بذراعيه": 8956,
      "يحتويان": 8957,
      "جزئياً": 8958,
      "كاميرتها": 8959,
      "إسمنتية": 8960,
      "عشر": 8961,
      "عارٍ": 8962,
      "عاريات": 8963,
      "قنينة": 8964,
      "لجبل": 8965,
      "لجسم": 8966,
      "للبحيرة": 8967,
      "للبحث": 8968,
      "للاحتجاج": 8969,
      "مماثلة": 8970,
      "متقابلين": 8971,
      "وصندل": 8972,
      "##اضات": 8973,
      "الأرانب": 8974,
      "يتهيئن": 8975,
      "العامود": 8976,
      "التوالي": 8977,
      "التواليت": 8978,
      "التدخين": 8979,
      "التدليك": 8980,
      "والرمادية": 8981,
      "متجعد": 8982,
      "متجهة": 8983,
      "متجولون": 8984,
      "للسيارة": 8985,
      "للسباحة": 8986,
      "للصوت": 8987,
      "يتسوقان": 8988,
      "يستردان": 8989,
      "سباحين": 8990,
      "وتعطي": 8991,
      "قفازته": 8992,
      "الاسماك": 8993,
      "يبتعدون": 8994,
      "حديثا": 8995,
      "مربوطان": 8996,
      "احتجاجية": 8997,
      "أطرافه": 8998,
      "أوروبي": 8999,
      "أوروبية": 9000,
      "بغزارة": 9001,
      "بغيتاره": 9002,
      "بانحناء": 9003,
      "تهز": 9004,
      "تهبط": 9005,
      "يفحصون": 9006,
      "##نقاض": 9007,
      "الوعر": 9008,
      "الوثب": 9009,
      "الوالد": 9010,
      "فيلًا": 9011,
      "مناظر": 9012,
      "الملصقات": 9013,
      "الملتحي": 9014,
      "المظلي": 9015,
      "المظليين": 9016,
      "المظلمة": 9017,
      "بالدلو": 9018,
      "يتفاعلان": 9019,
      "يتطلعون": 9020,
      "العملاق": 9021,
      "العملاقة": 9022,
      "العمالقة": 9023,
      "يسدد": 9024,
      "يسددون": 9025,
      "يسابقان": 9026,
      "الرحالة": 9027,
      "والطبل": 9028,
      "الحشود": 9029,
      "ويعزف": 9030,
      "ويعانقان": 9031,
      "ويشربان": 9032,
      "ويصنعون": 9033,
      "راقصات": 9034,
      "يرتاحون": 9035,
      "وتقفان": 9036,
      "ماكينة": 9037,
      "مزهرًا": 9038,
      "مزمارا": 9039,
      "مختلفين": 9040,
      "تعليقه": 9041,
      "يتجهان": 9042,
      "تصنعان": 9043,
      "حجابا": 9044,
      "ملطخة": 9045,
      "إلكترونيًا": 9046,
      "ارجوانية": 9047,
      "ابنها": 9048,
      "ابنتها": 9049,
      "برياضة": 9050,
      "تعبيرات": 9051,
      "زبدية": 9052,
      "سلالات": 9053,
      "ضاحك": 9054,
      "طائراً": 9055,
      "عريضة": 9056,
      "لبعضهم": 9057,
      "لبعضهما": 9058,
      "ميدانية": 9059,
      "مدفون": 9060,
      "مدفأة": 9061,
      "مدفونة": 9062,
      "مملوءة": 9063,
      "يفجر": 9064,
      "##وّد": 9065,
      "##وّح": 9066,
      "##حقق": 9067,
      "##بتة": 9068,
      "المقلية": 9069,
      "المقلوبة": 9070,
      "يتكئان": 9071,
      "يتكئون": 9072,
      "البوابات": 9073,
      "حقيبتها": 9074,
      "ويهمس": 9075,
      "ويهبط": 9076,
      "ويهتف": 9077,
      "ويصرخون": 9078,
      "مرحاض": 9079,
      "أصابعه": 9080,
      "مستنقعات": 9081,
      "يخطئ": 9082,
      "عملاقين": 9083,
      "ملصقًا": 9084,
      "ملصقاً": 9085,
      "يتعلمون": 9086,
      "مرتبطًا": 9087,
      "الخرساني": 9088,
      "المكانس": 9089,
      "ويستعدون": 9090,
      "لوحده": 9091,
      "تُقلع": 9092,
      "حذائه": 9093,
      "أردية": 9094,
      "أرجلهم": 9095,
      "إطاراتها": 9096,
      "بملعقة": 9097,
      "جيدًا": 9098,
      "خرافيًا": 9099,
      "دفن": 9100,
      "دفنت": 9101,
      "رغوي": 9102,
      "قبو": 9103,
      "قدحا": 9104,
      "كاياك": 9105,
      "كفوف": 9106,
      "كهرباء": 9107,
      "لاتخاذ": 9108,
      "مبطنة": 9109,
      "نزولا": 9110,
      "هادئ": 9111,
      "يفرز": 9112,
      "##دايا": 9113,
      "##متلكات": 9114,
      "العبور": 9115,
      "الرباط": 9116,
      "الرباعي": 9117,
      "المثيرة": 9118,
      "المثلجات": 9119,
      "معصم": 9120,
      "معصوب": 9121,
      "الشوكولاته": 9122,
      "بالإطارات": 9123,
      "بالإبادة": 9124,
      "يتصرف": 9125,
      "يتصفح": 9126,
      "الصوتي": 9127,
      "القذر": 9128,
      "والنمر": 9129,
      "والدته": 9130,
      "متفاج": 9131,
      "للإبحار": 9132,
      "للانزلاق": 9133,
      "تنفض": 9134,
      "محادثة": 9135,
      "المرشات": 9136,
      "مشتعل": 9137,
      "بأصابعها": 9138,
      "بمفردها": 9139,
      "مصابًا": 9140,
      "يهتفون": 9141,
      "المطاطية": 9142,
      "وينتظرون": 9143,
      "مستلقيتان": 9144,
      "ومكان": 9145,
      "ومكياج": 9146,
      "وعيناه": 9147,
      "ويرفعون": 9148,
      "الانتظار": 9149,
      "الانتخابات": 9150,
      "مثقوب": 9151,
      "المهرجان": 9152,
      "المهرجين": 9153,
      "أنابيب": 9154,
      "إبهامه": 9155,
      "بضائع": 9156,
      "بثلاث": 9157,
      "ببندقية": 9158,
      "جمجمة": 9159,
      "جبلا": 9160,
      "خصوم": 9161,
      "خصمه": 9162,
      "خياطة": 9163,
      "خيامهم": 9164,
      "دمبل": 9165,
      "رصاصة": 9166,
      "رائعة": 9167,
      "رائحة": 9168,
      "سخيف": 9169,
      "سخيفة": 9170,
      "طباخ": 9171,
      "طباعة": 9172,
      "عربي": 9173,
      "عربية": 9174,
      "عمومي": 9175,
      "لامع": 9176,
      "لامعة": 9177,
      "لقطات": 9178,
      "ناطحة": 9179,
      "ناطحات": 9180,
      "هبوطه": 9181,
      "وملونة": 9182,
      "يضغط": 9183,
      "يضبط": 9184,
      "يُرش": 9185,
      "يملك": 9186,
      "يكتظ": 9187,
      "يفحط": 9188,
      "يفحصان": 9189,
      "يطفئون": 9190,
      "اليدوية": 9191,
      "الولادة": 9192,
      "الولايات": 9193,
      "الاحتف": 9194,
      "المرقطة": 9195,
      "الموتور": 9196,
      "باليقطين": 9197,
      "باليجوس": 9198,
      "بالمنظر": 9199,
      "بالمنحدرات": 9200,
      "يتناوب": 9201,
      "يتنزهون": 9202,
      "التشغيل": 9203,
      "ينساب": 9204,
      "والصنادل": 9205,
[...]
