+ا
+ك
ب+
+هم
+ات
+ي
ل+
+هما
+نا
+ن
+ها
+كما
+ة
ف+
+كم
+كن
+ت
[بريد]
[مستخدم]
لل+
ال+
[رابط]
س+
+ان
+وا
+ه
+ون
+هن
+ين
و+
ك+
[PAD]
[UNK]
[CLS]
[SEP]
[MASK]
!
"
#
'
,
-
.
0
1
2
3
4
5
6
8
9
:
A
B
C
D
F
G
H
I
J
K
L
M
O
P
R
T
V
W
X
Z
[
]
a
b
d
e
g
h
i
j
k
l
m
n
o
p
r
s
u
w
x
y
،
؛
؟
ء
آ
أ
ؤ
إ
ئ
ا
ب
ة
ت
ث
ج
ح
خ
د
ذ
ر
ز
س
ش
ص
ض
ط
ظ
ع
غ
ف
ق
ك
ل
م
ن
ه
و
ى
ي
ً
ٌ
ٍ
َ
ُ
ِ
ّ
ﻷ
##و
##ج
##ي
##ن
##ا
##س
##ع
##ر
##ت
##د
##ً
##ه
##ض
##م
##ل
##أ
##ح
##خ
##ط
##ة
##ص
##ب
##ئ
##ق
##ء
##ث
##ى
##إ
##ظ
##ز
##ك
##ش
##ف
##غ
##ّ
##ذ
##ؤ
##آ
##ُ
##ِ
##َ
##I
##G
##O
##L
##1
##ﻷ
##3
##T
##V
##m
##x
##o
##l
##e
##r
##b
##a
##d
##s
##0
##M
##X
##h
##ٍ
##2
##5
##ٌ
##9
##u
##g
##W
##w
##k
##i
##y
##n
##J
##8
##C
##H
##p
ال
في
##لى
على
##ان
##جل
##بي
##اء
##رة
##ال
من
##لب
ير
##دي
##ار
كلب
رجل
الم
##مر
##قف
##ون
##ين
##عب
##لا
##ير
يقف
##ما
##ية
مع
##ات
الأ
##تدي
##را
##ود
صغ
##لعب
##لج
الك
##فل
##عة
##اة
##مرأ
يرتدي
يرك
فت
##مرأة
##سود
##بيض
صبي
##ول
الش
##رب
بال
يت
##نا
##لق
##مل
##مي
##ري
يلعب
##رق
صغير
يقفز
فتاة
##اب
امرأة
طفل
##راج
##لاب
كرة
الع
##ني
##خص
##جلس
##ًا
يح
##مو
الماء
الس
يس
شخص
##ثن
##وق
##هو
أبيض
الر
##حد
##يرة
##لة
يركض
##ميص
##زلج
الص
##يا
##مام
##ها
الب
##ائ
أسود
الت
يجلس
النا
تر
##اط
بين
##شب
الط
قميص
الناس
##خر
##راجة
إلى
مج
اثن
الث
بينما
الق
العشب
##عض
##وح
##ور
يحمل
##طف
الهو
##موعة
اثنين
أمام
مجموعة
ين
##لاث
##بر
الخ
##لون
##حمر
كبي
##تس
##با
##فر
بني
##دم
الثلج
يم
فوق
ثلاث
صغيرة
يق
##وم
يركب
##قة
##ظر
الهواء
##رج
عبر
##زرق
##اطئ
وال
##عد
##ارع
حق
الج
الح
##اف
##يد
بج
وا
##ام
دراجة
بر
##لف
##كة
الد
الكلاب
ترتدي
##انب
##بل
##طفال
ثلاثة
تح
الشاطئ
##ضر
لا
وأ
##تق
الف
##وب
الكلب
تقف
##قرب
لعب
##وج
الن
##شي
##مس
حقل
##اج
بعض
بالقرب
مت
##هر
##مراء
##مه
لعبة
##يل
حمراء
##ريق
##ارج
يقوم
يسير
وي
بجانب
ست
##حة
مس
##كب
فمه
##ورة
آخر
لل
##مة
لوح
##بعة
كبير
##لال
##بتس
##اص
ور
##يف
##اه
ينظر
أحمر
أس
##شبي
القدم
لاعب
سترة
مق
تس
##هم
أش
صخ
##نة
##ابة
أزرق
##هما
##لابس
##سي
سيا
يلعبون
بي
##بتسم
يتس
##تقال
##اول
##رض
##يرا
تلعب
زرق
##ارات
زرقاء
##قب
##لي
المت
يش
##رو
يط
##تان
##خضر
##اميرا
كبيرة
قبعة
##صفر
##بن
الز
##ارية
يمشي
##خاص
الكرة
بركة
##جال
##يط
##دون
الغ
الشارع
اللون
وأسود
را
ملابس
المح
الرجل
##بح
##وان
السبا
##عر
##شد
يلعبان
أطفال
تن
كلاب
##ضاء
##فع
الصغ
يتسلق
##ديقة
##دة
الخلف
خلال
سود
##ته
سوداء
جد
##حدر
##بنى
يست
أشخاص
##مواج
يد
##اً
##صيف
كلبان
رجلان
التزلج
تجلس
##أس
سبا
شخصان
بيضاء
##تاة
ذو
##صا
تحمل
تت
سيارة
أحد
خارج
أرب
##رف
الأطفال
##ائر
برتقال
وامرأة
##طة
##ذة
صورة
أسفل
##مال
##قر
عن
##فراء
بح
المحيط
دراج
والأ
واحد
مبنى
حشد
##بول
##جرة
##ارب
فتات
يج
##كل
##دية
راكب
##سك
##غط
##ست
يرت
البني
يمر
منحدر
##رابي
الصخ
حول
ثلج
عشبي
وج
يص
##وي
الدراجة
خلف
##وا
بع
##ولا
##زلق
البعض
##ويل
##كلب
شاب
قدم
##ضراء
##ياه
أربعة
##كي
الكاميرا
##بة
يتزلج
السباحة
##صان
مقعد
صخرة
يرتدون
أصفر
طفلان
##يات
##دعة
الجل
رأس
الأمواج
##بال
##ابق
##ثناء
الرمال
الصخور
أثناء
طول
جدار
##نس
##ظارات
الأرض
فتاتان
الذ
تحت
تم
##اخ
##ارد
طريق
وت
##سر
الأحمر
يقفون
الخلفية
زي
البي
##دينة
##ولاد
يقفان
الخارج
##قفز
شعر
##بيضاء
##وحة
جبل
شجرة
مح
وش
صفراء
يع
##وذة
الجليد
يمسك
وق
يأ
##ساء
الأبيض
تزلج
يبتسم
##اد
##فس
الطفل
يشاه
سباق
نح
وكلب
السلة
##ضح
##كض
منط
المر
باللون
مش
##اح
يجلسان
الغابة
أرج
الأسود
يجلسون
حديقة
##سبول
##ناك
أن
ذات
##ديد
##راع
خضراء
يسبح
منطقة
مر
##خذ
##وار
الآ
التنس
المتزلج
أخضر
يحاول
##حدث
يرتديان
الرجال
بخ
عصا
مسار
الزي
امرأ
ترابي
##ضرب
##مع
نارية
##ضع
##زل
المياه
##ائية
متزلج
تلة
شي
هو
هناك
##افة
رجال
ما
##ناء
##سم
##لم
تقفز
صخري
نحو
يطارد
تق
موج
##لع
دراجته
تركض
##يت
##نية
##ارة
##زح
ثوب
وردي
##اولة
متس
الرصيف
الصبي
قميصًا
امرأتان
خشبي
##وس
ظهر
##رجح
شارع
##عبي
##سوداء
##اقب
خوذة
رما
الطائر
قميصا
الأزرق
بجوار
بلا
##جار
يراقب
الأخضر
العديد
الطريق
مغط
##يه
##دح
برتقالية
وجه
الصح
البر
وف
قارب
مز
ناف
##عات
##أرجح
##بض
الدراج
موجة
مو
وس
البيسبول
الفتاة
تسير
للق
يشاهد
ملعب
الملعب
##مسية
##اق
المدينة
الصغير
ثلجي
بأ
##يبة
##ربة
##لونة
##روال
يتم
الطلق
##يدة
بحيرة
زوج
بعضهما
معا
ينزلق
الذي
وب
الدراجات
للقبض
##وف
##وية
##كوب
تمشي
بخدعة
##هور
##زرقاء
حي
السوداء
معطف
أسمر
##اخل
تج
##اك
تتس
##ديه
الحديقة
لاعبي
##بان
الأش
##طار
رصيف
المن
يركضان
الفت
ذراع
طاولة
كر
##جر
##يك
الجبال
وأبيض
##زحلق
بد
الشخص
##حمراء
الل
الجبل
الآخر
بم
##قط
عقب
الأولاد
مك
##حب
##بار
##خرى
مخ
البيضاء
يرق
رمادي
##كرة
قمة
شاطئ
##ضي
الأرج
النارية
يستعد
وفتاة
حافة
الصحن
##دف
##ارس
##ينز
##ضحك
به
##ورا
##ماء
بالث
عال
معد
##ائرة
النهر
عربة
نظارات
##ورق
##أة
حقيبة
##رفة
شابة
مص
وهو
الور
##لقي
ركوب
##اعد
##فت
صبيان
##راب
قف
##وز
الجو
يجري
تل
وراء
واحدة
يأخذ
تع
طائر
طويل
سياج
شيء
##يتار
وبني
جانب
##زف
المرأة
##جاج
##حر
المس
يسيران
شمسية
مط
##لوج
##طفل
الزرقاء
##ائق
الفتيات
##لان
##زه
طفلة
الصغار
أرجوحة
أخرى
مظ
##وت
يتج
الفناء
يسيرون
عند
زوجان
سروال
أص
داخل
##روب
##فق
والأبيض
##نت
تركب
برتقالي
يل
##ند
الشمس
نافورة
##وراق
بش
طوق
نساء
النساء
تبتسم
سيدة
كت
لديه
الي
الا
تنظر
بق
##عم
الحمراء
كلبًا
يتحدث
##واني
رأسه
ريا
##نف
##ميل
وح
يقود
##مسك
السباق
تد
حبل
##وارع
##صول
##اتف
البرتقال
يه
##احة
##رير
##تظر
##لوان
##قا
##ثير
##لات
##خرج
يركبون
##قراء
عشبية
مغطى
كرسي
سي
قط
##جة
##ضية
##لامة
##راه
الشعر
##تقط
سباحة
وقبعة
تط
خمس
خدعة
##هي
##افت
يصط
##دو
يطير
هوائية
الأشجار
أولاد
تش
ملونة
جرف
حمام
لافت
الكبي
يتأرجح
طفلين
ثلجية
مزدح
حصان
علي
الإ
ورجل
كل
نظ
##كت
##لقة
الهوكي
بنية
لر
##وض
##قية
##ظهر
##ريس
##ابات
بعمل
##لعاب
متسابق
آسي
درب
سائق
يب
##بع
الصغيرة
شقراء
##رات
اله
##بين
المط
الأصفر
السيا
بعصا
يرقص
تص
وطفل
##سة
##تد
##تين
فتيات
##اجز
عقبة
أع
المتزلجين
حج
بالغ
قفز
بذ
فريق
##لام
يتق
الدرج
بط
لي
يغ
##وارب
##ئة
##لبة
الترابي
يصطاد
##تص
##حمل
التي
وردية
يوم
##نع
##مصان
##الة
يرش
بالأ
##ريكة
وقميص
ترابية
الوردي
أمواج
علامة
##ادة
##مان
##صارع
الري
##ينة
##نام
أشقر
##ويلة
الأرجوحة
بالثلوج
عدة
ماء
##سان
##كاميرا
##راويل
##فلة
يرتدين
##فعل
خمسة
ساحة
##وع
##لو
##أخذ
##صبي
وسط
بدلة
بن
زح
فس
##يدي
##نب
##نان
##تع
##تها
##نافس
شيئ
تتسلق
##يكية
نظارة
أك
مفت
##راء
##دق
##لوق
فتى
##وحل
متسلق
الليل
مزدحم
الترابية
زورق
غرفة
##داء
##شون
تسلق
الغيتار
يأكل
مغطاة
##باراة
داك
قبل
##عام
##مول
يرمي
المش
##ولد
##ريب
##تقاط
وشك
جسر
جسم
زجاج
طويلة
كاميرا
يخرج
يفعل
##نظارات
##طي
##قل
##زي
##كبي
منزل
المسر
يسقط
لافتة
حجري
المسرح
قص
وبيضاء
يعض
##اع
##من
المد
##رقص
الصفراء
ينظران
دراجات
البرتقالي
سلة
طائرة
##وط
##هبي
##مار
##شة
##انق
##لاً
يحملون
يركبان
الجد
بعضهم
يعزف
مدينة
وين
##طح
##بط
اللا
الشوارع
تست
##بحث
زلا
عرض
يضع
يرفع
##رقة
التل
القميص
يمشون
متجر
للح
##روف
خلفه
يتقات
جال
خط
وهي
##حيرة
##ؤدي
##انية
##رام
ينتظر
##ليقة
يشرب
تنس
والأسود
بلاست
##حرك
##يس
##ظا
##ورت
خي
مد
مياه
##جاه
البحيرة
الطويل
الخاص
متن
مست
##وانية
##بولين
مكان
##رامبولين
وصبي
##ضة
القفز
المراه
بعضها
أحدهما
##ريسبي
بعد
حاجز
شاح
ملي
نفس
##جارة
##غر
المو
الملونة
الأس
##ناع
##ائط
الزهور
مطعم
مظلة
قطعة
بذلة
أف
ساق
طف
##هب
##صة
الضح
##التقاط
صغيرتان
##ائي
##خرية
الجينز
مسن
تتحدث
محاط
حيلة
مخط
##ظاهر
بقفز
رمل
عائ
يخ
##يكي
##طب
##جلات
##عبر
##مات
##شبة
ينف
##ومة
ويحمل
يعمل
##دحرج
نافذة
حا
ضخ
عم
لالتقاط
وم
يضرب
##وقف
##ركة
المق
للكاميرا
يده
أربع
ظهره
وجهه
تجمع
معدات
آسيوي
شري
فقا
قرب
##رع
##باب
##ثال
##زين
##فة
المع
الأوراق
صغيران
الترامبولين
الطعام
اثنان
##يدان
النار
مسنة
المتزحلق
تنزلق
تقوم
تتسابق
المسار
يتجول
فستان
مفتوح
الضحلة
سطح
غروب
مل
نهر
هذ
##جوز
الملابس
##ياً
##فرج
يدفع
يشاهدون
أرجوانية
الآخرون
الكبيرة
للحصول
أرض
بس
عجوز
مم
هاتف
##صل
يتصارع
يقفزان
شخصين
ترتديان
ينظرون
زحليقة
وينظر
زلاجة
مض
مبتسم
وع
ونظارات
يضحك
##وش
##مى
##خن
الخضراء
##امة
يستلقي
خشبية
حيوان
عالية
السياج
##تصف
بقفزة
أريكة
جرو
خشبة
قمصان
وير
ينام
##يول
##فح
##ذية
معاً
##لعبة
بالقفز
يحدق
التق
يحملان
يمتد
##يفة
تمسك
جل
حف
درج
فناء
مبتس
وخ
##ياب
##يها
##رأ
##حية
##قي
##ذاء
يتد
يقفزون
يسحب
يركضون
##ائب
الفريسبي
##وجه
آخرين
يتسابق
تتأرجح
يجدف
وشاح
البركة
المنحدر
عليه
إلي
بات
بسر
شلال
قوارب
كومة
##تف
منتصف
كلبه
الأع
بالماء
السن
يمارس
##اهية
بعيد
##وساخ
شاحنة
ذهبي
صند
صخرية
هي
ورق
##وه
##وص
##يب
##يور
##دام
الولد
##لبس
##ديها
##لاك
يتبع
السرير
الرمل
##اطف
الطوب
الحشد
##لالم
##سيارات
المحمول
تمثال
كتاب
سيجارة
أعلى
حوض
غابة
##جم
##تب
##حذية
##خدم
##بعات
##جلة
##بيع
صغار
يركل
يتدحرج
البقر
ينزل
لوحة
رأسها
الأرجواني
بالثلج
كلبين
الريا
##روفون
أو
رش
سرير
صالة
فات
كثير
نفق
##از
##افر
##اني
##يني
الشمسية
يحت
السلوق
الحبل
يشير
فتاتين
##سترة
##واس
أنف
موقف
أصغر
شيئًا
بسرعة
صندوق
جذ
مباراة
يؤدي
##اس
##هد
##فاف
الوحل
##دين
بيسبول
المتفرج
يصعد
خلفها
##وتر
زجاجة
يتقاتلان
الموسي
بل
مضرب
ول
##رطة
##متع
الرما
الخيول
يقرأ
النظارات
##روس
جدا
رياضي
التقاط
ترقص
زاهية
قناع
كان
وسترة
##نزه
##لس
##لاء
##ظار
##ارك
الميدان
معلقة
##راسي
الكا
البال
التراب
القطار
##لاثة
بنيان
##افات
للأ
الخلفي
مخطط
عائلة
بواس
تغ
حذاء
رع
ممر
ملون
##تلف
##راقب
بالم
قميصاً
مقلم
تلعبان
يطل
راكبي
رأسا
تجري
معدني
قفزة
الجدار
بلاستيكية
خيمة
يتصارعان
بواسطة
أجل
إطار
بها
تمر
طوف
قريب
لكرة
مائية
##أكل
##بخ
المص
##مامة
يمشيان
##يكروفون
##اعدة
يبدو
مبتسمة
باتجاه
فاتح
رعاة
است
تضع
لص
لسان
مه
وضع
##وات
##نه
##تح
منصة
بالح
##ناس
يحفر
##ياك
البنية
الطائرة
واقية
الفريق
ويلعب
ويبتسم
##واز
يبتسمان
المرمى
مشمس
مركب
هوكي
رمادية
##باني
يلتقط
تدور
##زياء
فقاعات
هذا
غط
قدي
لأخذ
##واج
##هة
##خل
##بوب
##زام
##آخر
الى
الورق
##بية
منع
المتس
المغط
يتزحلق
يتظاهر
##ابل
السلالم
الناف
يقات
الحصان
الحقل
ويت
سترات
يستخدم
خارجا
عنق
زيًا
أرجواني
أنبوب
بطانية
عمود
جينز
شت
وهم
يميل
##جادة
##يم
##ران
##حن
##فينة
الان
اللعب
منظر
معلق
الألوان
الأوساخ
الكثير
الشت
السي
السماء
البحر
يقبل
بجانبه
للسيارات
تجلسان
موكب
ذراعيه
##رابزين
يتجمع
داكنة
ضخمة
مضمار
انت
حدي
حين
قر
له
لق
مائي
يظهر
##وء
##جاة
##اش
##كر
الض
##ديو
معًا
حقائب
الحمام
يدها
الذين
باللونين
الكبير
لرجل
المراهق
أرضية
يتدلى
##لسلة
الكاياك
اش
جنب
حائط
خر
رطب
شورت
عد
يبحث
يلبس
##جع
##نون
##عية
##دراجة
الألعاب
الشباب
##ابقة
يساعد
##وجد
لاعبو
تسوق
بحبل
##يتين
موسي
مصارع
حصانًا
عليها
الهاتف
مستلق
وخوذة
هيكل
جذع
با
باب
بيد
تضحك
تراقب
ثياب
دلو
لت
##ترب
##ظلة
##كن
##كيني
##ناول
القر
بنيًا
الحي
الأشخاص
بمضرب
رياضية
وحيد
يهز
اللاعب
##تلفة
غطاء
أذ
ألعاب
بإ
بكرة
بلعبة
حفل
رق
صف
مراه
##وة
##وير
##تمع
##حني
##طلون
##صى
##ذف
المخ
##اتين
الصور
##هاز
##ائم
الثلجي
الداخل
تحاول
مترو
لوحه
وجهها
الصحراء
المنزل
الآخرين
تلتقط
تطل
##يديهم
داكن
حفرة
الشتاء
السيارات
تان
جان
حد
حركة
سن
ضد
قطار
مغ
يعبر
##وى
##امل
##سمي
##ضغ
##مبي
##مين
##لية
##خان
##طارات
##شاب
##فتاة
##ذان
##جلب
##لاد
##لاق
##لاقة
الأنف
طفلًا
البط
التلال
الخيل
الزح
شعرها
##وسط
ذراعه
جالسة
رملي
تأخذ
شوارع
صور
لم
مرب
وزرقاء
يديه
##اوية
##رخ
##تا
##هن
##حت
##زء
الرق
منزلق
المبنى
المباني
##ماش
##ودة
العمي
الرأس
##يام
ترمي
تقفان
ستة
تسبح
يجتمع
##واح
جبلًا
مشهد
أصلع
جالس
طفلاً
لسانه
##وازن
##واجه
انتظار
تأكل
حارس
سحب
شراب
قد
مقرب
##هرة
##لك
##قيبة
الظ
##ارغ
##مريكي
##يرات
الكر
بالكرة
يتع
يتنافس
القش
الحيل
متعد
مسافر
للت
مقود
يدور
يدخن
مرتدي
يستعدون
يهرب
آسيوية
السيارة
يرقصون
أكبر
مليئة
الأسفل
حافلة
الرياضية
السلوقي
حدث
##مبيوتر
أوراق
تب
جهاز
ريف
رسم
سك
سما
سنا
سلسلة
صيد
لأ
ميكروفون
وبن
ومع
##وك
##وذ
##جي
##نش
##زة
##شرة
منق
رجلين
##يران
معرض
صغيرًا
العلم
##ياج
الهوائية
والب
واثن
تحلق
المتنزه
##قرأ
##سكري
وتن
##سمنت
المطر
مليء
نفسه
ورقية
مهرج
لقطة
مقربة
حزام
درابزين
شرفة
عص
غير
مث
##نق
##هرب
##ضبان
##كم
##شجار
##انة
##ولة
بالون
السك
##وردي
يمضغ
الحدي
تحيط
##شيء
##هرول
ويقف
ويقفز
ويمسك
آخرون
للم
##وانات
الخلفيتين
##غطي
محطة
يعانق
الطفلة
مشجرة
الآسي
بخارية
زوجين
يلوح
يغوص
تستعد
شريط
شريحة
المتفرجين
البالغ
مركبة
حض
فم
فارغ
##يق
##يلاد
##بق
##قى
##فاع
##الي
##اري
##لاست
الأريكة
##راف
بالخ
يتحرك
##ريح
##وقوف
الرش
##ياس
التس
الطيور
##وحلة
للنف
تسحب
أشجار
يتسلقون
البيكيني
جبلية
مرت
##لعق
الصغيرات
بدراج
يرقد
وراءه
تعمل
##زهة
المطبخ
بنفس
قصيرة
ينتظرون
طفلا
ينفض
بعيدا
لصورة
المغطاة
الحديدية
للنفخ
آذان
أق
زهور
زفاف
عض
عين
عجلات
فضية
كما
نجاة
وحمراء
يك
##جول
##حلة
##خدام
##زون
الظهر
الاطف
##ارعة
المز
الموج
المباراة
##لاح
الأق
بالدراجة
الست
##ياد
##طفو
مقاعد
تنورة
تنتظر
وجينز
يصنع
صخريًا
##زحف
مظل
سروالا
قصير
الجدران
أفريق
الرمادية
النافذة
والبني
تي
تبحث
جمي
حاف
حلبة
رمي
ربا
شا
شب
عب
عجلة
فرقة
قبال
كوب
لديها
وك
يلقي
يلعق
يزحف
##جات
##يان
##يون
##سار
##لوي
##طوم
##صط
##بات
##فخ
فيديو
##ديق
رجليه
الأمام
السراويل
ترفع
ينحني
الثلجية
الداك
##هرية
##اهد
الغابات
جدول
##واق
وشورت
مشروب
وسروال
بأداء
حيث
ذراعيها
مختلفة
معدنية
اليسار
الاست
##لوانية
تطير
يرقصن
شيئا
المراهقة
محاطة
شتوية
المراهقين
الرقم
قدمي
سماعات
قبالة
أم
جميل
زهرية
سم
سكة
سفح
سجادة
شد
عيد
فرو
قبعات
لح
هدف
ويد
##وخ
##وعة
##واه
##جيرات
##رس
##رد
##مهور
##صر
##صبع
##قلب
##ظة
##شير
##مريكية
##اتل
##ناث
السفينة
##هوك
##زلجة
الثلاثة
القارب
والس
والع
الجانب
الحصول
الحائط
كبيرًا
##اهدة
يشارك
يطلق
يستمتع
دراجتها
والأزرق
##كيت
##عبين
الجبلية
مكت
بهلوانية
الوردية
بشكل
كتف
بقرة
##نفال
البرتقالية
ملتح
إليه
اشخاص
عدد
باست
مراهق
الأنفاق
بالخارج
إع
بدون
جيب
حيل
حفلة
رؤ
سان
سراويل
قا
كري
مضاء
ووا
وسوداء
يوجد
##واف
##اية
##رك
##رون
##در
##لواح
##خف
##بعض
##شاة
الها
الفر
الوجه
كلبها
المنافس
بالت
##ريبة
##ابلة
العجلات
الرسمي
الطاولة
مجعد
القبعات
والآخر
الجزء
مسي
مقل
بحي
شابان
وشم
تقود
كرات
عاليا
اليمين
وحقيبة
لرمي
الدرجات
اللاعبين
أفواه
المنحدرات
الموسيقى
الحيوانات
وبنطلون
##وذات
بدراجته
بنفسجي
باستخدام
وواحد
أيديهم
بت
حاد
زيا
زاوية
سوق
سماء
شر
صح
طيور
غيتار
ليل
لفتاة
نار
يجلب
##صوف
##غنام
##ّة
##ذهب
المج
المنا
يقفن
الكري
##ولف
الشجيرات
##ربعة
بالع
بالط
الركبي
الثور
الثلوج
القط
##برتقال
الخشبي
والبيضاء
##يدات
##وبة
الزوج
يستريح
برتقالياً
وتبتسم
وتحمل
محمول
تقول
##ضيع
تعزف
اليدين
رياضة
مدرب
رملية
##وقفة
ممد
جلدية
منعطف
جانبي
واثنين
سمكة
مسيجة
الكريكيت
أج
تهب
تعبر
سلم
شكل
عق
عرب
كش
كيس
كراسي
لحية
مأ
نائم
نزهة
يدي
##يح
##اذ
##عادة
##تى
##حف
##طال
##طاط
##ديل
الموحلة
الأد
##راكب
##ودا
الشجرة
الشرطة
##ريف
صغيرات
العروس
يحلق
السور
أبيضان
##حدى
البق
البلاست
يجلسن
##عداد
الجسر
الجراء
##افع
يقومون
أزرقًا
##صفراء
خارجاً
يصل
يبتسمون
الآيس
ورديًا
ظهرها
عالياً
تعانق
تدفع
تطارد
تشير
لافتات
##كتب
ويرتدي
الأعلام
##ازات
أنفه
بلوز
ولد
قديمة
خرسان
السكك
الآسيوي
كريم
أزياء
ألواح
بشيء
داف
زهرة
شرق
شبان
ضبا
ضمن
ضيق
غام
فصل
قل
قطة
قماش
لون
لمس
مضحك
وولد
##وبا
##جاب
##يش
##افلة
##سق
##دل
##دأ
##طواق
##صي
##صور
##ثلاثة
##كس
##شى
##الية
منخف
الممر
المعد
المائية
##ينية
الأم
##رائ
الشاب
الشابات
##ربطة
يلعبن
العسكري
السم
السوق
##ائع
القوارب
ينبح
##دمة
يمد
يقترب
والم
الحصى
واقف
وأصفر
متحرك
متوقفة
آخران
##اصة
أسنان
القدمين
يشم
أحدهم
يمران
حوله
وجوه
خلفي
جدارًا
محش
وشخص
يعطي
##راعي
مرصوف
معطفاً
اللينة
المسافة
بشعر
تشاهد
الإطارات
ليلا
وقميصا
بلاستيكي
##فحص
إليها
الرملية
يحتض
للأطفال
يقاتلون
يقبلان
موسيقية
الزحافات
متعددة
تبدو
ومعطف
الاطفال
رباعية
شبكة
عبور
سانتا
بحيلة
احت
بص
تظهر
جن
حانة
رك
عارية
علم
كمامة
لها
يواجه
يهرول
##وابة
##يع
##يًا
##نها
##ادية
##رح
##رية
##هى
##مية
##الب
مناف
##ديف
رجلاً
المست
المظلة
##ونة
الأح
الأص
الأغنام
##راص
بالك
السيدة
##هاية
الخشب
ثلاثية
الحق
الدفاع
وأحذية
النفس
بجانبها
كلابان
والأصفر
##وارة
وتر
يسبحان
ورديا
يشاهدان
##روبات
يتحدثون
مزدحمة
تصوير
بنطال
فساتين
أكياس
المدرج
مدخل
ساقطة
يخوض
ضخم
##تبئ
القرص
ريفية
رسمية
البالغين
مرتفع
عربات
مأوى
السمك
أخ
اصط
تتق
تقرأ
حجر
دو
دب
ظهور
قذ
قوس
لس
لبا
لكلب
مبل
موحل
مزلجة
وحد
وربطة
يلف
يبح
يغطي
##وغ
##اث
##سع
##عى
##رجل
##مون
##صب
##ثى
##ثبان
##كئ
##غال
الخر
الوا
##بيل
##الث
منهم
المضرب
الأما
الأمريكي
الكراسي
الكمبيوتر
يتش
##ابع
##موع
##موضع
السروال
##شبه
القمصان
يمت
الجاف
الحبال
الحافلة
##اراتيه
##ليدي
يتسلقان
يدا
الصخرة
يصور
يتزلجون
محاولة
يمسكون
##ضحكة
المرور
يتحدثان
سيار
##كتابات
الهدف
أعلام
فريقان
##لوى
الخاصة
بسعادة
هاتفه
وعاء
الأعشاب
يتبعه
يتظاهرون
حديدي
قرص
شرابًا
للتزلج
الرشاش
التسوق
الموجة
إعلان
رؤوس
كشك
يدير
الأدغال
دافئة
جنبا
لباس
ببعض
تخرج
تؤدي
حلقة
حلاقة
خف
رضيع
سه
شرطة
ضرب
ضوء
عام
علبة
عداء
فرع
قضبان
مؤ
مخر
مضحكة
نهاية
##وبر
##جا
##ده
##ضم
##خرة
##بلة
##قلبة
##زهور
##كع
##كز
##شرب
الوع
منت
يرسم
##اردون
##لاعب
##ماس
الأخرى
الكبار
الكرات
الشبان
بالص
بالناس
##حدار
البل
##ائن
##ائل
الثياب
القمامة
الخريف
##تسلق
##باز
والكلب
##لفوف
الدخان
الدوارة
الفقا
الفرقة
ويس
ويجلس
للغ
يطاردون
الغسق
تنفخ
والأحمر
خلفية
##ولات
##اخلي
يطاردان
يراقبون
قاربًا
يشاهده
بألوان
يرقصان
يلمس
بشرة
بقع
سيارات
##كتاف
يبدأ
مفتوحة
مخططة
كتابًا
السلوقية
المتفرجون
وضعية
قديم
ويتحدث
الانحدار
رقم
العميق
وتنظر
مظلمة
تيار
حافي
قدميه
فروي
والسراويل
شرطي
الزوجان
خرساني
المدرجات
مخروط
الوعرة
آلة
أكتاف
بطة
تضرب
جري
جبال
حام
رب
رقب
ركل
رحلة
صاف
عيون
فرق
فني
فنون
قزح
لع
لد
لإ
مرق
ملفوف
وه
واب
وبرتقال
يديها
يذهب
##ومو
##جوم
##عث
##عكة
##تعد
##مد
##صق
##صيرة
##قص
##آة
الرقص
الوقوف
##ارض
الملاك
##يناء
##لادة
##ماً
معه
الأزياء
الكثبان
يركع
صبيًا
##ناق
العمر
أبيضًا
الصيد
الصورة
القبعة
##طفاء
أمامه
الخط
##فرف
والبن
والنظارات
الجري
الجيتار
الحافة
الحاجز
وامرأ
الدفع
ويضع
مسارات
مقابل
صخور
##أسفل
تتنافس
بحيل
والأطفال
##غطية
الصخري
حولها
مشرق
مشاهدة
##احب
موجود
الصبية
##اقط
يتمتع
##ضيب
##فتح
قفص
عندما
سروالاً
##عمدة
تشرب
جسمًا
المدر
##انقان
يختبئ
ينفخ
حامل
فقاعة
فستانًا
قمصانا
وشاحًا
الرمادي
ويلعبون
أرجوانيًا
يتجمعون
العميقة
الظلام
الكرنفال
مرتدية
المتنزهين
مثل
السترة
أفريقي
شاشة
الداكن
ممدودة
##راصنة
تتقاتل
سهل
وهناك
أب
أني
أحذية
إحدى
بك
بار
توقف
جمهور
جليدي
حلة
دخان
داخلي
سع
سح
سقط
سفينة
صاحب
ضفة
قاعدة
قابلة
قضيب
كث
كبار
نوع
ويرا
وآخر
وصفراء
وثلاثة
يؤ
يوازن
يطفو
##وطة
##نات
##اقة
##عي
##عل
##علام
##مباز
##طلق
##طلاق
##صنع
##قود
##شف
منحن
المك
الميلاد
الأك
الكمان
##ولين
صغيرين
العشبي
العصا
العجلة
يحيط
##حدق
##يارة
##يادة
البد
الطرق
الطبول
والج
والمرأة
الحجم
الكلبان
##شياء
متع
متزحلق
ويح
ويست
مسابقة
كبيران
الزجاج
تتزلج
تتصارع
يرتفع
منحدرات
خلفهما
##ابقات
##نساء
الذرة
يأرجح
يبتسمن
امرأتين
وبعض
##اكس
بدلات
مصعد
الوراء
##زهار
طوقًا
##دوات
لركل
بالأشجار
أكمام
يتقاتلون
هذه
ممشى
##قيق
يجدفون
الرملي
الموسيقية
الورقية
المخيم
صحيفة
قليل
يبحر
الفقاعات
للغاية
حاملاً
وامرأتان
ويراقب
منحنى
أد
ان
ات
بف
ثوبا
جز
صع
صورا
طبق
علا
قابل
كلا
كيف
كمبيوتر
لدي
لضرب
لأسفل
ميلاد
ويل
##واء
##واب
##جديف
##نحة
##سل
##على
##رى
##تل
##دس
##فريق
##ذرع
اللعبة
منه
##اريس
المشي
##اتان
الكاراتيه
بالس
بالر
يتموضع
##ناح
##نيسة
يحصل
السجادة
الرطب
##هاجم
##ائلة
##ائمة
التزحلق
الطين
مجرى
الثلاث
القراصنة
والوردي
##لفزي
مقهى
أشعث
##ليق
تحملان
تتمتع
يجرف
يصارع
الذهبي
أنثى
تقترب
وجهًا
وفتى
وسادة
وسراويل
لاعبين
الفتى
مكتب
مصارعة
يجريان
مظلم
تبتسمان
تدخن
قطيع
يصطدم
جرفًا
##دقاء
##لوقة
المشروبات
دراجاتهم
دراجاتهما
متنزه
ساقيه
فستاناً
هاتفها
وينظران
يحدقان
يتسابقان
المصور
خرطوم
أذرع
مربوطة
الظل
منقوش
المزدح
جميلة
##باتات
أفواههم
عقال
##طاطة
غامق
منخفض
يحتضنان
اصطياد
الوادي
ربطة
والبنية
يؤدون
##لفزيون
أح
أغ
ألوان
أمريكي
ار
بقط
بكاميرا
بوابة
تأرجح
تطفو
ثور
ثالث
جوار
خصر
خوذات
رفع
شراع
صنب
صديق
ضاب
طو
طبيع
عا
كائن
كعكة
لط
لش
ممو
نق
وذ
وهما
ورقة
يفتح
##وصول
##يض
##رن
##رّ
##رعة
##تز
##تال
##داف
##هف
##هزة
##منت
##حل
##حمام
##خت
##خول
##طل
##طبة
##طلع
##باء
##ثل
##كلون
##غل
الراعي
##بيذ
##الج
منهما
##ديدة
رجلا
الميكروفون
الميناء
##لاط
الأمريكية
##ريع
السيدات
السومو
يسافر
##وقع
أسودان
ترش
##اطع
الطلاب
قميصه
القاعدة
القيام
ينقلب
##باق
##باما
يقلب
والق
الحجر
وأحمر
الفس
الفارس
النطاطة
ويقرأ
ويشير
مسابقات
للقفز
أسمنت
لاعبان
##قبض
السباح
يجذف
##غطاء
يصرخ
##ابقين
وتت
محت
يمسكان
##لماني
ثوبًا
مزيف
موهوك
بأيدي
معطفا
تجاه
الأشقر
مصاصة
وراءها
يهبط
##هيئ
يبكي
ليلاً
المشجع
تستلقي
الموهوك
آسيويان
يتجولون
يضحكان
درجات
يتسابقون
ذهبية
كتابا
أوباما
يحتفل
استو
المغطى
النافورة
مغلقة
##نشق
##هربائي
يلوحون
فارغة
يكمن
##لاحظ
جميع
مضاءة
المنافسة
الخشبية
البقالة
بلوزة
ضبابية
أسنانه
منافسة
الأماكن
الرشاشات
اتجاه
علامات
صنبور
ضابط
آلات
ألق
أدوات
اس
اح
بند
بائع
تك
تف
تميل
تلبس
توجد
تغطي
جس
جولة
حرج
حديد
سور
سيد
سمراء
طرف
طلاء
ظل
عمي
عاري
غابات
غريب
فنان
قلادة
كام
كوخ
لو
للعب
معب
ملا
ميا
مرج
مزلق
ون
وط
ووش
يشبه
يهاجم
##وهر
##جبي
##جعة
##جمة
##يشة
##نفس
##نقل
##نوبر
##اولات
##سو
##تي
##دراج
##هري
##ضاريس
##خة
##خيل
##طع
##صف
##بز
##بها
##ثر
##ظلات
##زمة
##كلاب
##كلة
##كاس
##ذه
##ذاذ
الرا
الوج
منش
منها
منديل
يرعى
يرفرف
##اريط
الما
المض
الملون
##ماع
##مامات
الأحذية
الأطواق
##راز
الشجر
بالق
بالش
بالف
بالوقوف
بالكتابات
يتكل
##ريط
##ريحة
العالي
العلوي
الصاف
الصخرية
الصودا
البناء
التع
الثيران
القا
القدي
##عضاء
##ورس
##دمون
يمين
الحلبة
الحكم
واد
واسع
لامرأة
وأزرق
النجاة
النبيذ
يقومان
مسدس
مقرّ
بيج
##قبعات
##ليب
المتجر
المتجول
##خضراء
الزلا
راس
جدارية
تتحرك
بحركة
راكبو
##واد
البيرة
مرمى
تقفزان
تقبيل
ورديّة
متسلقي
يراقبه
بأك
تمشيان
ذراعي
ذراعها
قفازات
الاسمنت
الإناث
دربزون
وطفلين
يغني
يرفعون
خيول
نفسها
الأسلاك
عملاقة
المقوى
يضحكون
الرياضي
تغني
بالحبال
المتسابقين
شتوي
موسيقي
بإصبع
منزلقة
يتنافسان
سكوتر
وتنورة
حضن
كوبًا
الاستحمام
وواحدة
لمسافات
ركاب
يواجهان
الأحادية
بالكرات
دوامة
بالصحن
ويسير
الخطوات
لديهم
طوافة
حرجية
ميامي
##وهرات
الوجوه
مقرّبة
أفق
أناس
أمريكية
أعضاء
إصبع
إطفاء
امام
احمر
انع
بهم
ببط
تُ
تناول
تهرول
جناح
حصيرة
خد
خروف
دفع
دائرة
رف
ركب
رداء
رسمي
رقيق
سير
سبعة
سيف
سيدات
شديد
عامة
عامل
عسكري
قريبة
قبلة
كامل
للج
لطفل
لصبي
لبيع
نا
وز
وكرة
وغطاء
ياب
يبيع
##وشة
##جب
##نز
##ندي
##نوع
##سورة
##رز
##تر
##تون
##دها
##دفع
##هار
##ضواء
##لل
##لكت
##حاب
##خي
##خط
##بوط
##قرا
##ثم
##زان
##شارة
السود
الخص
الوسط
##الات
يرفس
يرمون
##ارقة
المبار
المفت
المصارع
##قفازات
##ماك
معاطف
##راً
الشابة
الشموع
يتناول
يتنقل
##لقاء
##ابور
طفلها
##راجيح
العين
السكة
السائق
السلام
##وقد
الصنوبر
البخ
ترت
##خرف
##خرطوم
مجداف
القضبان
يحملن
الخيام
والح
والحمراء
والناس
والنساء
الجرف
الجمال
الجمهور
الجمباز
الحركة
بجعة
برميل
الدرابزين
وأس
الفم
لعبته
النباتات
بعضهن
ويم
ويق
ويضحك
للر
تساعد
يشق
الزفاف
الغوص
يستع
يستند
##أسه
تتع
تتظاهر
والأخضر
يجعل
منحدرًا
وجود
وجبة
خلفهم
تحتوي
تمارس
وتضحك
البيج
جبلي
محف
يأكلون
##احلة
مركز
متزلجين
تقدم
البرية
مزينة
##اقطة
ثلجيًا
بأيديهم
##اكهة
الشخصان
رماديًا
##ضيء
يأخذون
مطاط
بشجرة
تنظران
حبلًا
الهند
بالغين
بذراع
بالأوراق
بالألعاب
الريف
بنطلون
زحافات
زحلوقة
##نانير
زجاجية
المدارس
المدخل
المقعد
المقدمة
جلوس
يمارسون
يحتوي
صندوقًا
جذوع
بلوح
مخططا
بالمظلات
المصارعة
ويبتسمون
يقاتل
البحرية
حديدية
مستلقية
أذن
المختلفة
يعبرون
الزحليقة
يجتمعون
متعدد
ريفي
سنارة
منقوشة
بالونات
للمشاة
يعانقان
##رافية
أقدام
الأقدام
الداكنة
كتفه
قاعة
##وافذ
المنازل
البلاستيك
المعدات
محشو
محشوة
قذر
وحده
يداعب
عامود
مؤخرة
جريدة
مرقط
أنيقة
سعيد
جزئ
صوراً
كيفية
الفساتين
احتف
بندقية
تفاحة
كامير
مزلقة
المضمار
انعكاس
##لكترون
bm
أيدي
إسمنت
ازرق
ابتس
بيرة
بمس
ترق
تواجه
تكتب
ثمان
جمل
حبال
حلوى
خبز
دمية
ذيل
ذلك
ربط
زميل
سق
سوية
سلالم
شع
شباب
صدر
عش
عار
عمل
قن
كهف
لج
للب
للا
مما
متق
مرف
ممسك
نمر
نفخ
هم
وص
وتق
وكل
يكتب
##وين
##وكة
##واجز
##جيل
##يوم
##يقة
##يته
##نعة
##اض
##اعات
##سوم
##تعة
##تهما
##دلى
##دار
##حم
##حيط
##حبان
##خلف
##طم
##طق
##طابقة
##بب
##بدو
##قاق
##ثلان
##كور
##شاهدة
اللب
فيه
##اره
المغ
المال
المقا
##لاة
##ماعية
##اتهم
الأر
الأب
الأربعة
##راد
الكريس
الكمامات
صبية
##ولو
الشا
الشرفة
يتهيئ
##ملوء
##ميك
صغيرا
العام
العالية
العائلة
##هوة
الرجبي
الصف
البارد
التو
التد
التلفزيون
التنانير
ترف
ترسم
الطبيع
القماش
يحمله
##طفئ
أمامها
ينطلق
##باح
##باك
##باشير
فوقه
يقدم
يركبن
##رجواني
والر
والث
والش
والطفل
والفتاة
الجيش
الدجاج
النظر
النخيل
النورس
##اجر
متج
متوسط
متجول
متطابقة
ويط
مستدي
مسرح
##كبوت
للس
للص
للكرة
للتص
للوصول
##اهدين
مقيد
يتسوق
##ليدية
اللونين
تنحني
يسترد
سباح
ذوي
تتدلى
بحلقة
يجر
##سكرية
يصب
يصطف
يتزلجان
##نسان
الذكور
طريقه
وتع
وشعر
يعالج
تسيران
بأشجار
كرنفال
اللوح
اللحية
بمقبض
يستعدان
قفاز
تلوح
يأخذان
جانبها
تركبان
بشقلبة
كتلة
الياب
اليمن
الاس
الامواج
بقدم
يقودان
لركوب
يبتعد
المطعم
تصل
وطفلة
##تداء
بذلات
بالأعلام
##نبوب
المشاة
المشاهدين
##طيخ
زلاجات
ينتظران
ساقه
تتحدثان
ينفذ
وملابس
المقود
وينظرون
##وشم
##وشحة
##لاكمان
رشاش
أنفها
كانت
استعداد
بالحصى
حديث
جنبًا
مراهقة
مربوط
جالسين
الكرسي
سكني
سناً
مهرجان
فمها
عينيه
الهاوية
غيتارًا
الآسيويين
##رائط
وجوههم
احتجاج
الأصدقاء
الحقول
الحقائب
حجرية
مبلل
يمتثل
البلوز
ويجلسون
وبرتقالي
كثيفة
نوعان
ثوباً
المزدحم
خصرها
شراعية
عازف
ووشاح
##دراجات
منشفة
الزلاجات
bmx
ثمانية
المقاود
الكريسماس
اليمنى
أط
أور
أمه
أداء
أعمدة
أشياء
أيض
إشارة
بغ
بان
بلون
بناء
ته
جر
حذ
حلق
حمل
حتى
خش
خلوي
دون
رمال
رذاذ
زهري
صلبة
صياد
ضفاف
ضحلة
طارة
طينية
عظ
غائم
فن
فقط
قلي
لوجه
مبا
موقع
نطاط
وتس
وقبعات
يمي
يوجه
يفحص
##وتان
##جموعة
##نين
##ندية
##نقا
##نكبوت
##توك
##ضان
##مم
##طر
##صن
##صير
##بس
##باط
##ببة
##ئي
##ئز
##قرة
##قصة
##ثار
##ظيف
##كه
##كيل
##في
##فاه
##TV
الو
الات
فيل
منا
##اراث
المم
المل
المظ
الميت
الموقد
##ينجا
##عبان
##لاف
الألماني
##راة
##راقة
الكتب
الكنيسة
الكهربائي
الشرق
الشباك
بالن
بالد
بالهو
بالوردي
يتفق
يتوقف
يتوازن
يتفاع
يتلاعب
يتطلع
##ناديق
##نادل
##لقى
##لقون
##ريعة
العد
العم
العار
العمال
العريس
العامة
العنكبوت
##نيم
يحرس
##مويه
السقف
السفل
السلم
يسد
يسابق
يسلم
يسحبان
الرح
الرغ
الرسم
الرطبة
الباب
البطيخ
##ائز
التجديف
تركل
##اطس
بينهما
الطويلة
الطلاء
مجرفة
القوس
القطب
##ورات
الخور
يمكن
يقذف
يقضم
والط
والسوداء
والزهور
الحش
الحجارة
الحجاب
الدخول
الدنيم
##بلل
تحصل
##ضرية
وأخضر
##مسة
بعضا
متحف
ويع
ويشرب
ويصنع
للن
للدراجات
كبيرتان
لاعبة
بيئة
بيكيني
يطبخ
الزوار
الزاوية
راقص
يستنشق
تتكئ
خارجي
والأرجواني
يرتاح
الجلوس
وتقف
وتقفز
محل
المرآة
يسبحون
الآلات
بخوذة
ماك
نحوه
تقلع
تقاطع
##يهية
قاربه
مزهر
مزمار
موتوك
بأوراق
تجدف
الفتيان
الفتاتان
اللوات
بمظلة
بمنش
مختلف
مخالب
##دفق
مصور
مصنوع
وراءهما
تعليق
مطلي
##وتوغ
يتجه
أصل
##فقاعات
برتقاليًا
##ندق
طوقا
الاسود
الاحمر
بقعة
بقالة
قطع
تشكيل
الإطار
ورجلين
نظرة
##كتابة
تصط
تصنع
تصرخ
حجاب
بطنه
ليس
يغنون
يصطادان
بالأبيض
وقميصاً
الريش
##يديو
زجاجي
يعزفون
خطوات
يشربان
أفراد
##هبوط
ويحملون
تجمعوا
المعاطف
المعيشة
ملط
##فرجين
بسحب
مضغ
حيوانات
حيوانًا
باتمان
##تفاع
الأعلى
بعيدًا
الموسيقي
بلدة
ولحية
قناعا
البالون
تغرب
بالمظلة
ويبتسمان
المتساقطة
يقاتلان
عنقه
الضوء
اشقر
مستلقٍ
بيده
بيدها
ثيابا
بإعداد
مغلق
لمشاهدة
##واحي
يتعانقان
يتنافسون
مرتديا
واثنان
ويقفون
الآسيوية
##بقار
##لاحق
السترات
وجينزًا
شابين
مشروبًا
قدميها
##ناثر
والعريس
مراهقين
الهاد
ليلتقط
بالعصي
بالطين
القطبين
وتبتسمان
أجهزة
عقد
##حفظة
البلاستيكية
الآسيويات
شرقية
ضبابي
واقفة
الأصغر
وترتدي
تصويره
الخروج
يتشارك
سيارته
أعلامًا
رؤوسهم
ويتحدثان
صافرة
##مدد
المدرسي
المدرسة
سحابة
سقطت
ويحاول
بفمه
صعودا
بقطعة
##تزا
أسمنتي
محترف
يمينه
المتجولين
بإصبعه
##خييم
جزئيا
ابتسامة
ترفيهية
مستديرة
خشنة
مباشرة
##اراثون
موتوكروس
اللواتي
ATV
أخذ
أضواء
إسع
إلكترون
اال
اسود
ابيض
ارج
ابن
بري
بتد
بخرطوم
تأ
تلف
تاج
تعبي
تجار
ترامبولين
تغطية
تحدق
جاه
جوا
حريق
حشرة
حضرية
دور
روب
ركض
زب
زقاق
سون
سلال
سلوق
شير
شمس
شقلبة
شديدة
صال
ضاح
ضباط
طير
طائ
طعام
طاولات
طابور
ظلية
عري
عشب
عمال
عائق
عيدان
عروس
غز
فر
فوض
قيد
قاع
لتص
لجلب
لشيء
للاست
لبعض
ميد
مدف
موحلة
مملوء
نصف
هز
هؤ
هوب
هلي
وإ
وسود
ودراجة
يف
يبر
يوقف
##وّ
##جري
##جنحة
##يماء
##نط
##نك
##نطة
##اور
##عون
##رم
##تمام
##مق
##مز
##مدة
##حق
##حوان
##خين
##بت
##ئية
##ظيرة
##زلاق
##شرطة
##فارقة
##غني
##غيل
##ذي
الفل
الوشم
##انو
##جليد
المه
المرف
المارة
المكت
الموحل
المقل
##مرين
##ينيات
##لاهما
##مادي
الأراجيح
الأنبوب
الأبقار
الأفارقة
##راحة
الكأس
الشرف
الشاح
الشقراء
باللعب
بالزهور
بالفقاعات
يتث
يتكئ
يتلاكمان
##ناه
##ميد
صغيراً
##نيه
السيط
الساخ
السلامة
السريع
يسرع
شخصًا
الصدر
البو
البع
البوابة
البولين
##ائين
##ائدة
التذ
التبن
الطراز
القربة
القريبة
القيادة
القتال
القهوة
يندفع
الخوذات
##تسامة
##دمى
ثلاثي
يقع
##ومين
والماء
والبرتقال
والصفراء
والرجل
حقيب
الجرو
الجافة
الجسم
الحلوى
بجدار
برأسه
الفاكهة
##وجيه
النقل
النوافذ
##مساح
##يلاء
ويه
ويص
ويأكل
ويبدو
##كبة
##كبات
للطي
للخلف
مقنع
تسقط
بيديه
يتسلل
المترو
المتاجر
يشجع
الزورق
الزاهية
الغولف
راقصة
المحنطة
تنزل
جدًا
يدافع
تتمدد
برتقاليا
بحقيبة
يرتد
يمرون
وجها
##ويب
الجلد
##اخذ
##سرى
البيانو
شعره
محشي
محيط
وقط
##ادث
##ادات
الطفلان
نحلة
وكلبه
أنه
##راعيه
مرح
مرآة
يحاولان
مادة
تقاتل
##يتي
الطائرات
وفت
وفمه
##اقات
وبقرة
##كوبتر
معطفًا
##طاردة
المنصة
بملابس
بمقود
مكونة
مخاريط
عالٍ
ركوبه
##فتات
تلمس
المسبح
مطابقة
مطلية
أصابع
##نتها
اليسرى
الاوساخ
وحذاء
يقودون
##هيب
دربًا
تصطف
وطفلان
بالغان
وقميصًا
المشهد
جسرًا
منزله
المدرب
يضعون
يتقاتل
خطوط
يشربون
مستنق
القفزة
عائم
يخط
يعملان
حاوية
عملاق
آسيويين
آسيويات
ملصق
ممز
مبتسمان
مبتسمتان
ويركب
حفنة
مبتسما
يتدافع
وشاحاً
يمارسان
بعيداً
##جمدة
الرياضة
مضربه
رياضيًا
قناعًا
الباليه
لصيد
ويلعبان
منعه
المتسلق
يتظاهران
الانف
قرد
الضواحي
المراهقون
يبحثان
تضحكان
لتناول
رقعة
صورتها
سحبها
يتعلق
يتعلم
عصابة
##ورديون
حضنه
مرتبط
الاطفاء
الأقحوان
أفريقية
حافية
وكأ
وكلاهما
الأمامية
وسروالا
ويداه
والعشب
يشاركون
يطلقون
يستمتعون
##وافير
##ركات
مقلوب
ليلي
المجوهرات
المناطق
بالطلاء
أجنحة
منخفضة
منافس
المستشف
ظهورهم
قذرة
مبللة
وحدها
الخرسان
خفيف
خفيفة
ملفوفة
وابنتها
وبرتقالية
الملاكمة
الملاكمين
حاملين
صاحبه
المكان
العشبية
البدلات
متعرج
ويستعد
أدناه
كلاهما
طبيعي
مموهة
وتتحدث
استوديو
عميقة
لوحد
ملاهي
ونظ
##سومات
##ذهاب
يتكلم
القديمة
ببطانية
تُق
##خطى
العينين
البخارية
يستعرض
كاميرته
انعكاسه
قناة
مرفوعة
الأبواب
##ميكروفون
والثلوج
للتصوير
أيضا
حذائ
الاتجاه
بالهواء
السفلي
الزوارق
##وتوغرافية
الموسيقيين
إسعاف
تجاري
روبوت
شيرت
صالون
هؤلاء
هليكوبتر
الفلوت
السيطرة
المستشفى
أر
أوسط
أرجل
إطارات
اخر
انف
اخت
بمر
بما
بمل
بكل
بارد
بزي
بكتابات
بولو
تلقي
تشبه
تضاريس
تضيء
ثلوج
ثعبان
جلب
جاف
جيد
جراء
خفة
خراف
خنز
خزان
دي
دش
دف
دائ
دورة
دومين
رغ
روض
رمية
سج
سا
سلك
سريع
شراعي
شرائط
صلع
صينية
ضربة
ضيقة
طبلة
عاص
علوي
فا
فنية
قب
قش
قلب
قام
قدح
قيادة
قتال
كج
كا
كف
كأس
كمان
كهرب
كنيسة
لب
لك
لات
للف
لهيب
مرة
مبط
ملاك
مائل
ني
نط
نز
نوم
ناس
نصب
نوافير
هاد
وصيف
وخضراء
يو
يفر
يفع
يغط
يلاحظ
##وبي
##واطئ
##وصان
##جام
##جمع
##جهة
##يير
##اؤ
##اضة
##سح
##سعة
##عا
##رين
##تري
##تهم
##تيه
##دا
##دع
##ضدة
##مت
##حمس
##حيم
##خمة
##صابع
##بابة
##بوغ
##قس
##كام
##كاري
##فو
##فون
##ذب
##ؤول
##ؤوس
##ll
العب
الرب
الارج
الفراء
فيها
##اروخ
رجلًا
المث
المساء
المبلل
الماراثون
##مريك
##لامس
##لاجة
##ماق
##ماث
##مادية
معص
##اتح
الأرا
الأفق
الأمان
يركلون
الشائ
الشلال
الشوك
الشريحة
الشواطئ
بالل
بالإ
بالتقاط
بالكتابة
يتص
يتشب
يتحدى
##نادق
##ملة
##ميع
##ريات
##رقلة
##ابض
العمل
العرض
العزف
العداء
العكر
العنق
العصي
العناق
يحبس
##موجة
السير
الساق
السطح
السحاب
يسرن
##حدثن
الصيف
الصوت
الصينية
البوق
البجع
البلاد
البنات
البلاط
البجعة
##ائد
##ائش
##ائفة
أسودًا
التلة
التضاريس
التخييم
ترفس
ترتد
##اطعة
الطيران
الثوب
القذ
القمة
القامة
القاحلة
القصير
##ورك
يحملها
ينق
ينحت
الخي
الخام
##باحة
يمسح
والن
والد
والك
والراكب
والخضراء
الجان
الجولف
الجحيم
الحواجز
واضح
واجهة
واسعة
الشاطئية
وأربعة
وأغطية
##تقل
الفيديو
الفاتح
لعبور
النيران
النجوم
النهار
النينجا
##مساك
متف
متجمدة
متحمس
ويمر
ويلقي
مساحة
للإ
للان
للكلب
للكلاب
للشرطة
لوحات
##اهن
##اهرة
مقلاة
تسابق
تسريحة
تسجيل
##سيج
##سيوف
بيع
بيتزا
يتسكع
يتساقط
##ليج
يطلان
الغبار
وأسودًا
ملابسه
الرجلان
تنف
##ضاءة
جداً
يستمع
يدرب
يدخل
##صاعد
تتزحلق
تتدحرج
تتخطى
تتجمع
بحبال
بحركات
المحيطة
يجمع
يجرون
##سكوب
يصوب
##ويم
##ويورك
##وامات
بعلامة
شابات
الجلباب
تمد
طريقها
وتلعب
وتحيط
البيت
محط
محادث
وشابة
وقوف
وقناع
##ادر
منطاد
المرش
المركبات
مشجر
مشتع
مشكلة
مرور
المتزلجون
ماوس
##سمان
تقلب
تقليدية
موجات
وردياً
##وسطة
مزخرف
يشاهدها
بأذرع
بأصابع
ينزلقان
تجر
##اكر
المنت
المنط
المنظر
المنظار
بمفر
مكياج
مكسورة
مخلوق
مصاب
وراءهم
تعل
تعلق
تعطي
طويلًا
جانبه
مظلات
داخلية
##فقين
كتب
كتابات
الابيض
الازرق
تدريب
يهتف
سيجار
قطب
تطعم
يتأرجحان
نظار
الهبوط
المطاط
تصعد
تصفق
أعمال
أعماق
يتقدم
ليمو
يغسل
يغوصان
يرشان
الريح
الريشة
زورقًا
يأكلان
قصبة
وينتظر
تستند
عرضاً
مدفع
مستلقي
شاحب
الأسماك
##ناعي
ويحملان
يعملون
ومك
المقاعد
آسيويتان
المعكر
بسياج
وعين
يستلقيان
ويرفع
يحدقون
جليد
حفاة
وخلف
##وهة
يتبعون
كتاباً
رشه
فاتحة
يقرأان
تغوص
بالمضرب
استراحة
لسانها
مهج
يلتقطون
الانت
لقد
يظهران
يبحثون
مصارعين
مستلقيا
الحياة
وحيدا
أذنه
أذنيه
صفوف
الداخلية
جانبية
البطاطس
يدوران
حدثًا
لأنها
مثق
حضنها
التسلق
أقنعة
كمامات
مظلل
رباعي
ويده
ويدخن
مكتوب
مكتوبة
الفرو
مقلوبة
أفواههما
المناظر
الزوجين
مدربه
كيسًا
البقرة
المعدنية
ركلة
المستنق
لسيارة
الأمامي
رؤوسهن
منتجع
##ولاتة
ويتحدثون
رقبة
رقبته
باروكة
المكياج
الأكبر
والجبال
الزجاجية
تتصارعان
وبعضهم
أداة
بالركض
يتموضعون
أذرعهم
أغنية
ارتفاع
طبيعية
لشخص
نقطة
وذراعيه
##لاطمة
بأيديهما
المشجعين
تكمن
جسده
سيدتان
الراقص
الماسك
الصافية
بأكمام
بأكياس
ويسيرون
جناحيها
ركبتيه
نادي
يابانية
##جبون
الخصر
الوسطى
المفتوح
ويمشي
ويقوم
ويضحكان
محفظة
مطاطية
الهندباء
احتفالية
بمساعدة
ترقد
زميله
شعاع
عشاء
وتقرأ
اللباس
المغلقة
الأرنب
الشاشة
للصورة
بقدمه
جرار
عظمي
##نقاذ
##ئزر
الممشى
الميتة
العدائين
العارضة
الرسمية
للنظر
مخالبه
ملطخ
البالونات
يتشاركان
بتدريب
جاهز
غزال
فوضى
للاستيلاء
##يماءات
المهرج
المكتبة
الساخن
البعيدة
البولينج
والبرتقالي
ممزقة
ونظارة
خنزير
دائري
روضة
ساعة
كجزء
نيويورك
نطاق
##مريكا
الأراضي
الشائكة
يتشبث
المعكرونة
آثار
أين
أنا
أمان
أظا
ألس
أطواق
ألماني
إن
إبها
ام
اجل
بض
بث
بز
بهما
ببن
بكلب
بضرب
بطفل
بوجه
بولين
براقة
تو
تاب
تنام
تلفزيون
تطفئ
تمويه
توجيه
تمساح
ثقب
جم
جب
جرة
جائ
جيدة
جوارب
جمباز
حما
حادة
حمار
حزين
خص
خيا
خيط
خندق
دم
دائر
ذي
ذق
ذيول
ذكر
رص
رائ
روم
راف
ريش
سخ
سبي
ساكس
شج
شرب
شفت
شقرا
صحر
ضحل
طبا
عر
عجل
عمو
عبا
عناق
عسكرية
عراة
عوامات
غف
غزل
غريبة
فضي
فارس
قري
قبع
قاحلة
قمم
كهربائي
كاهن
لف
لام
لهما
لقط
لكن
لراكب
لنفس
مشب
مشد
ملع
ميت
متقاط
ميكي
ميدان
مائدة
مطاردة
ناط
نويل
نسر
نيون
نائمة
ها
هما
هندي
هبوط
ولا
ورا
ومل
وصول
وراكب
ونساء
وقفازات
يض
يز
يُ
ينا
يمل
يهر
يفق
يكت
يفح
يطفئ
يلاحق
يلامس
##ومي
##وام
##وبية
##جان
##جانب
##جاد
##ياء
##يكل
##نم
##نثى
##عك
##علان
##عشاب
##رش
##رمان
##رمن
##رحية
##تم
##تاد
##دهة
##هون
##هير
##هتمام
##ضحة
##مته
##مارس
##مثال
##لص
##ليل
##لتقط
##أم
##أمل
##حرج
##طان
##طاء
##طرن
##صوير
##بوع
##قلة
##قوط
##قائب
##ثب
##ثلون
##ظم
##ظمة
##زع
##زم
##زواج
##كلا
##كري
##كروس
##كشف
##كينيات
##شود
##شقلب
##شروبات
##فري
##فوخ
##ّج
##ّم
##َّ
##ذراع
##ؤية
##آب
الاب
اليا
اليد
الولا
الاح
فيلم
##اند
##اءات
##الم
منمق
يراف
يربض
المرق
الملي
الموت
الماع
المزلجة
المراكب
الملاعب
الممد
المواد
##مرن
##قفاز
##لاسل
##ماعات
معشبة
##اتات
##اتلان
الأوسط
الأعمدة
الأوشحة
##راش
##راوي
الكام
صبيا
##ولي
الشفاه
##ربع
بالي
بالمر
باليد
بالكاميرا
بالوحل
بالمن
بالطح
بالرس
بالدمى
يتح
يتنا
يتنزه
يتدفق
##ناج
##ميلة
##ريطة
##رقام
صغيرتين
طفلهما
##لابة
العقب
العربة
العسكرية
يحجب
السل
الساحة
السلك
السواد
السريعة
الساطعة
السقوط
يسجل
يساره
##هوما
الركض
##حدة
الصلبة
الصباح
##هاً
##هام
البنت
البشرة
التش
التحدث
التنزه
التوازن
تركت
ترفرف
الطباشير
الطقس
##خروج
##خرفة
مجاني
مجمدة
اثنتين
الثالث
##وران
الهواتف
ينس
الخد
##بادة
##فرها
يمص
يقول
يقطع
والخ
والص
والدي
والسم
والزرقاء
والكلاب
والجليد
الجذ
الجام
الجماعية
الجميلة
الحظيرة
##افح
واق
برش
بركوب
بركلة
الدرب
الدلاف
تحكم
##تقي
##تقبال
الفنان
الفوتوغرافية
##وجبات
النز
النوم
النزهة
مته
متص
متوسطة
##مهد
##مهم
ويش
ويواجه
ويهرب
مسؤول
مسرحية
فمهما
لله
للمس
للتح
للذهاب
للخروج
للوجبات
لوحًا
ورضيع
##اهي
##اهما
##اهدون
أحمرًا
مقط
مقدمة
أشعة
##سيم
بيجا
##ليين
المتلاطمة
يطحن
يطرح
الغزل
الغيوم
راية
راكع
المحت
تنطلق
كلابهم
جدران
يسترخ
يستحم
يستكشف
يدحرج
سبايد
تتم
تتمسك
تتناول
تتجول
خارجًا
بحزام
يجثم
البنيّة
بعيدة
بعصي
شابتان
جدارا
##نسة
الأرضية
الذهب
تمت
وتجلس
وتراقب
وتصنع
وتطل
البيكينيات
يعوم
وقت
نحيل
نحيف
المرت
مشغ
مشوهة
##احل
##راعيها
مروحة
مرسوم
الآباء
يحاولون
ماسورة
تقع
تقذف
خشبيًا
يراقبان
وفي
مزين
مزرعة
الدراجين
مواج
وسائل
وسيارة
يشاهدن
بألعاب
أسمرًا
تتسوق
المنق
المنزلق
اللذان
بمق
بمش
##قطين
مكبر
مكنسة
##ضيق
عالق
عالقة
مصبوغ
مصراعيها
يأخذن
تعرض
##جاجة
مطبخ
أصدقاء
##نتهما
يلكم
بشرية
بشريط
بقميص
تطلق
يطيران
تشم
تشارك
تشغيل
الإنش
الإمساك
الإنقاذ
الإعلان
لرؤية
سائقي
الهجوم
تصب
أعشاب
يتقدمون
بطوق
يغمس
يغادر
يرشش
يرشون
##وعاء
##لوري
##نباتات
##راءة
زورقا
##هبية
وينزلق
اللافتات
تستخدم
تستمتع
عرضًا
يرفعان
متنوعة
متنقلة
مستعد
الأسمر
ساقي
ومبنى
ومحفظة
المعج
المعرض
المعاكس
يتصارعون
ويركض
جلسة
يسحبون
يجدفان
إليهم
السنجاب
المحمولة
يتدحرجان
أوكلا
رشاقة
سريره
يحتج
أنفاق
يؤديان
##اسية
للألعاب
للأعلى
للأرمن
مخططًا
بالمشروبات
إطارا
تمرين
المصفقين
وضعت
بالحجارة
مركبات
ويتظاهر
يستخدمون
عمودًا
الشتوية
قرون
الضباب
لرجلين
عدسة
موسيقى
بابا
بابتسامة
ثياباً
القرود
القرميد
بمضربه
رقائق
المخاريط
لمجموعة
الرقبة
جالسًا
يتعامل
مقودًا
تبكي
سماعة
لأعلى
لأنفس
##سمنتي
مهرجين
حزامًا
عصير
عصابات
مثيرة
ويقفزون
يلوحان
البالغون
##بقع
أقدم
عينه
يكون
المزرعة
الموجات
يصنعان
##صطاد
مشروبات
أمتعة
لحفل
والعديد
يستمتعان
مراهقتان
الفرسان
الفرشاة
مقلما
حادًا
شروق
بالعشب
يستريحان
يستريحون
منعطفا
جانبيها
بلوزات
خرسانية
مضحكا
مضحكًا
وولدان
يمدان
وجوهًا
بلاستيكيًا
يحتضن
احتضان
بصخرة
يواجهون
دولاب
يتشقلب
سيارتين
إعلانات
منتشرة
يرسمون
البلدة
رقبتها
لدى
مرقمة
ويضعون
تتنافسان
تشربان
حاملة
سعيدة
الأكورديون
ويراقبون
انته
صعود
ويلتقط
الذهبية
المزدحمة
أحزمة
ارتداء
ثالثة
لشراء
والقمصان
السباحين
استوائي
##لاحظات
اتجاهات
ألقيت
سيدتين
عميق
يهاجمون
بالقميص
الصافي
القاعة
ذراعيهما
إصبعها
خروفًا
رداءًا
للجولف
يتناولون
تتعانقان
الريفية
جلوسها
إسمنتي
سقوط
صدره
متقابلة
يتهيئان
التدريب
الطبيعي
الطبيعية
ويطير
للسباق
يصطفون
اليابانية
فنجان
يميلون
يتفقدون
يتفاعل
الرحال
الحشائش
ماكياج
بمنشفة
تصطاد
الهادئة
إلكتروني
ارجوحة
تأتي
تعبير
سونرز
سلوقي
ضاحكة
طائرا
فرشاة
لتصويب
يبرز
المرفأ
البوظة
يخطو
الانفاق
وكأنه
منافسه
الخرسانة
لوحدها
تُقاد
حذائها
أوسطية
اختبار
دومينو
عاصفة
فاخر
ملاكم
وصيفات
يفعلون
يغطس
##اؤب
##ماثيل
ينقض
الخيمة
المنطقة
تعلن
نظارتها
ليموزين
مهجور
امتد
بولينغ
جائزة
دائرية
شجيرة
شفتيه
شقراوتان
صحراء
عبارة
غفوة
مشدود
ملعقة
##مارسة
##طرنج
##فريت
يرافق
المليئة
الماعز
الممدودة
الكاميرات
بالطحالب
العقبات
والسماء
الدلافين
الفنانين
الإنشاء
أوكلاهوما
BM
Re
آس
أي
أقط
أمريكا
أزواج
إوز
إنسان
إضاءة
اج
اع
احد
اصفر
اناس
ازياء
انق
اربعة
اطفاء
اطلاق
بب
بلعب
برب
بشد
بقر
بسك
بورق
بنت
بتص
برقص
بسيارات
بوسط
بتسلق
بموجة
بوعاء
ببقع
تذ
تين
تزحلق
تثير
تفعل
تبيع
تهرب
تذهب
تفحص
تخت
تاخذ
ثق
ثدي
ثورا
ثقي
جو
جي
جما
جمال
جمع
جافة
جوية
جيتار
جند
جرس
جاث
جاكس
جماعية
حر
حل
حيرة
حاج
حولا
حدو
حبات
حزمة
خلاب
خور
خافت
خريطة
دفق
دولف
ذرة
ذبابة
رس
رفق
رطبة
ردهة
زخرف
سر
سف
سقف
سكن
سوبر
سومو
سطل
سريعة
شال
شفاه
صقر
صوت
صيني
صحن
صاروخ
صناعي
طب
طرق
طلاب
طبل
عو
عل
علب
عشرة
عادية
غص
غرض
غبار
غائمة
غيوم
غصن
فريسبي
فعل
فاكهة
فلوري
قلم
قراءة
كاب
لول
لهم
لحدث
لثلاثة
لتسلق
لفريق
مب
مها
مثير
مراقب
مباني
ملقى
مئزر
ملاحظات
نف
نظر
ناد
نقل
ناع
نبات
نباتات
نوافذ
هبط
هندية
ود
وث
وجل
ولب
وفر
ومس
وكبي
ومن
ووجه
وهبوط
يان
يعب
يضيء
ياخذ
##ومات
##ودين
##وديو
##جد
##جف
##جية
##جوس
##جعات
##جهزة
##يء
##يوه
##يوانات
##نود
##نغر
##نزة
##نوعة
##نظيف
##اعب
##اير
##ايات
##اوز
##اديف
##اوتان
##سية
##سيل
##سومة
##عه
##عار
##عود
##عرج
##تزلج
##تفرجين
##تناج
##دش
##دلية
##هث
##ضن
##ضمام
##مير
##له
##لأ
##لط
##لمة
##لحية
##حث
##حاء
##حات
##حرف
##حناء
##حاولة
##حاق
##حلات
##حيض
##خلق
##خراج
##خور
##خام
##طرة
##طحة
##طعام
##طاير
##صح
##صلون
##صائر
##صلاح
##بون
##بورة
##ئه
##ئكة
##قت
##قد
##قق
##قات
##قاط
##قدام
##ثو
##ثية
##ىء
##ظهار
##زية
##زلون
##زوج
##زمار
##زانة
##كا
##كاء
##كية
##كعة
##شان
##شين
##شخاص
##شوة
##شتا
##شنط
##فن
##فف
##فور
##فوف
##غو
##غة
##غين
##ِّ
##ّان
##ذاف
##ذبة
##ذكرة
##آلات
##er
##ull
الال
الدي
البيض
الام
اللي
الارض
الوصول
##انيات
##انوية
##بيب
##اءب
##الد
##الجة
##اليتين
##الوين
منتف
مناس
منظار
منضدة
منفوخ
يرى
يريد
يريح
##دياً
##ارت
##ارق
##اركة
##ارتين
##ارتداء
المف
المؤ
المعب
الملا
المرا
المهر
المبتسم
المطار
الموز
المزه
المائي
المجلات
##ونو
##لاج
##يركي
معها
معهم
معسك
معالج
##اتم
الأل
الأول
الأوز
الأنه
الأرجل
الأزهار
##راس
##راض
##راشة
الكتل
الكهف
الكنغر
##وليب
الشع
الشر
الشاه
الشيط
الشراب
الشريط
الشطرنج
الشيء
بالمو
بالور
بالوس
بالزي
بالرقص
باللعبة
بالخرطوم
بالذراع
يتبار
يتقا
يتلقى
يتحدثن
يتأمل
##ناف
##نارة
##ناية
##مياه
##ريك
##ريبا
##ريقة
##ريبين
##رقية
يقفزن
##ابون
##راجع
العكرة
العراة
##نيان
يحي
يحمي
يحرق
السج
السحب
السلسلة
السبورة
يسار
يسكب
يسوع
شخصية
##وقت
الرخام
##حدرة
يركضن
الصد
الصناديق
الصنادل
الصلص
الصعود
البه
البذ
البان
البار
البري
البريط
البولو
البراقة
البنك
البتناج
البكاء
##ائه
التقط
التخرج
التنين
التمرين
التصوير
التماثيل
النادي
تركع
##اطا
##اطىء
الطابق
الطنان
الطاز
الطاقة
الطابور
قميصين
##خرز
مجموع
مجاديف
مجذاف
الثاني
الثانوية
القطارات
القابلة
القصب
القصيرة
القريبين
الهولا
أمامهم
أمامهما
ينغ
ينقل
ينتف
ينحرف
ينزلون
الخوض
الخوخ
الخمسة
الخلابة
##تسجيل
##باً
##باه
##بابي
##بادل
يمنع
يمثلان
يمشين
فوقها
يقيس
##ومبي
##رجال
##رجاع
عبرت
والذ
واللعب
والسيارات
والفريق
واللحية
##عداء
##عدات
حقي
حقا
الحر
الحما
الحاد
الحديد
الحوض
الحزام
الحانة
الحرية
الحليب
الحرم
الحمير
الحصائر
الحراس
##افلات
بجناح
واضحة
واشنط
برمي
الدببة
تحوم
تحته
تحطم
لاست
لاكروس
وأك
وأحد
وأمام
وأذرع
وأجنحة
الفول
الفيل
الفنية
الفاني
الفارغ
الفحم
الفائز
الفراش
الفصح
النفق
النصب
##اجبين
متر
متزل
متظاهر
متصل
متواز
متشاب
متماس
متهيئ
متفرجين
ويغ
ويعض
ويجر
ويخرج
ويظهر
ويفعل
ويأخذ
ويبحث
ويفتح
ويحدق
ويطل
ويغني
ويصطاد
بجانبهم
بجانبهما
مسبح
مستع
مساعدة
للرقص
للبيع
للصور
للتسلق
للهبوط
كبيرتين
ورمادي
ورمادية
ينظرن
لاعبًا
مقوس
مقطع
تساقط
##سيكي
سياسية
بيض
بيوم
بيديها
بيغل
##ليم
##ليك
المتحرك
المتحدة
المتعرج
يشت
يشغل
يطلب
يطوي
الزهرة
الغرفة
الغالب
راعي
راكعة
ملابسها
المحاط
الرجلين
تنين
تنبح
تنكر
كلابه
كلابها
##تهي
يستح
يستلقون
##صاحب
تتص
تتوقف
تتطلع
تتناثر
تتشقلب
أحدهن
برتقالة
عنه
عنها
عنزة
بحماس
والأحذية
يجرب
يجوب
يجثو
حولهم
وجو
وجبل
وجرو
وجسر
##واي
بعربة
##ولاته
قدمين
قدمها
الجليدي
رأسًا
رأساً
##بالغين
الذراع
الذكر
تحتج
تحتضن
تمتد
##اخرة
طريقهم
وتد
وتاج
وتبحث
وتأكل
وتشرب
وتحدق
وتجري
وتلتقط
وشجرة
يعت
يعلق
يعرض
يعلم
يمسكه
يمسكها
وقد
##فسهم
سباقات
سباقًا
نحيفة
المرء
مشرقة
مشجع
أرجوان
أنت
أنوف
أنحاء
أنفسهم
##راعية
مرنة
مركوب
مرأة
مرعى
مرئي
مرآب
أخضرًا
متزلجة
هواة
مايكل
يطارده
تقريبا
موجودة
تركضان
متسخ
الصبيان
بجواره
يراقبهم
الصحف
الصحيفة
البرك
وفريسبي
مزد
مزودة
مزهرة
مزلاج
موض
موحد
مورقة
وساق
وسيدة
وسادات
وسماعات
بأن
بأق
بأربعة
بأطواق
بأعلام
بأربع
يتمكن
تجثم
تتساقط
المنديل
المنحدرة
كرمة
كرتون
بدأ
بدفع
اللحاق
بمن
بمنا
بمحفظة
بممارسة
##حبك
مخف
##دفقة
عالي
مصف
مصباح
الورود
##رابزون
##وزة
الجوائز
تعويم
طائران
طائرًا
سياجًا
##حركة
المسافر
المساعدة
مطارد
يتجاذ
سرواله
أصف
أصحاب
يلتص
كتل
اليوغ
بقوارب
بقمصان
وحشد
وحصان
وحارس
وحكم
تدخل
يهب
يهتز
##قراءة
قطط
تشكل
تشتري
يتأرجحون
عليهم
الإن
الإوز
الإلكترون
الإنسان
كلهم
كلوز
يبنيان
المطلة
المطلي
المطابقة
قفزت
يتقلب
بطولة
بطنها
بطاقة
ليص
ليقفز
يغمز
بالأزرق
بالألوان
بالأوساخ
بالأزهار
بنزين
شيئاً
أكوام
متسلقان
المشجعات
زجاجات
يخرجان
##طيور
منزلها
يسقطان
يسقطون
يعضان
##مارين
تستمع
تستنشق
زلاقة
يضعان
للحافلات
بلاستيك
##حركات
خيمته
مدهون
##جاهل
متنكر
وصبيان
الموحد
##ناعية
ساقط
ساقها
الضحل
عائمة
ينفث
ومص
ومش
معداتهم
المعطف
المعارض
المعجبون
فستانا
ملته
بسيف
ممت
ممطر
مبتسمين
وعرة
وعلامة
قمصانًا
قمصاناً
جلس
مبتسماً
يتدرب
يتدلي
شلالاً
##تفعة
الأعمال
ورقي
##وهج
##لاكمة
يتبعها
##جمهور
رشها
سريرها
أنفاس
يصعدون
بلد
مضربًا
ولديه
ولديها
الرماية
قناعاً
الكامل
تغذية
تغيير
ملونين
ملونًا
ملوناً
بالمباني
معدنيًا
طوفًا
المصعد
المصاصة
فاتحًا
استاد
استخدام
لصديق
بالحيل
يلتقطن
يلتقطان
غطاس
الورقة
المتساقط
يتظاهرن
ويتم
ويترك
الانزلاق
قرية
##كربيل
الضارة
الضخمة
حقائبهم
عداد
يساعده
لتذكرة
القرية
الحيوان
اللاعبان
صفين
تلتقطان
داكنًا
سنارتين
يعبران
البطاقات
الزحلوقة
صورهم
مربع
##رخون
تأكلان
سحبه
##لكات
الكركي
الكرتون
للتزحلق
مرتدين
تبدأ
جهازًا
سكين
وبنية
ومعه
منقار
المتنزهون
عصاه
عصفور
مثبت
للمشي
يغوصون
شريطًا
حضري
##رافيتي
التسلية
بنفسجية
زفافهما
عينيها
يكمل
يكافح
الستة
يصنعون
تبحثان
شبه
عباءات
وكلاب
وكراسي
وشورتا
وسروالًا
وسروالاً
فروع
لحشد
لحيته
والسهم
والسروال
يشاركان
مكتظ
كتفيه
حيلًا
رؤيته
قادم
قافلة
الهام
الفرح
بالتجديف
بتمرين
صحراوي
ليلية
المجاني
القطط
ممدود
ممددة
جانبيه
##حفاة
البلاستيكي
شرقي
غامض
قلعة
المعدني
##رائس
والمج
واقفين
يعطيها
بشعرها
احترافية
المستعار
الأحياء
وترش
وتركب
بنطالا
يخوضان
يخوضون
دبابة
لسحب
لكلبه
##اثة
يمتلك
يصوران
ضربه
أكتافهم
صافية
لعق
لدخول
لإطلاق
لإلقاء
يذهبون
##صقات
الخطوط
موجودون
يتمتعان
أنيق
بكرات
توقفت
جليديًا
سحاب
صاحبها
البداية
والجينز
ويحيط
الزجاجات
##فريقية
بالسجاد
بالرمل
يتموضعان
الثلاثية
يجرفون
يصارعان
أذرعهما
أغصان
صديقه
لطيف
لطائر
مموها
نقش
وذهبية
والقميص
الحجرية
ويشيرون
أسمنتية
ألقت
ألقى
اسفل
جسدها
معبد
معبأة
ملائكة
##ذهلة
المايوه
بالفريسبي
التعرج
التعامل
القادمة
أفقي
سيره
سيرها
كاملة
ياباني
السوداني
الخصم
المبارزة
المفتوحة
المصارعين
السائقين
وأسفل
للرمي
للرأس
يستعيد
تتعلق
وجوده
تمارسان
بذراعه
زحافاته
جلوسهما
محشوًا
احتفال
أيديهما
بمسح
ترقصان
سقيفة
صدرها
عارضة
للاهتمام
ممسكا
ممسكين
وكلهم
##وينات
المالك
الشاي
التوأم
يقدمان
والرمادي
والشمس
ويطارد
يتسوقون
وتعزف
الياباني
الاستقبال
يبتعدان
البلوزات
أطباق
حلقات
زهرياً
قليلة
قليلاً
وتسير
يميلان
منازل
بالنار
يتفقد
العمود
الرغم
بمنشار
تصطدم
الهادئ
تاجًا
زبدة
عريض
ميداليتين
هزيل
الشاحنة
الشاحنات
يتثاؤب
يتثاءب
التذكاري
التذاكر
حقيبتين
ويأكلان
مقنعين
وقطعة
وفتيات
وفتاتان
مستنقع
يتدافعان
يتدافعون
المتسلقين
انفجار
بكلتا
جيدا
ديوك
سجائر
صلعاوتان
قبلات
كأسا
كهربائية
لبد
لكنه
لاتقاط
مبطن
نزول
هادئة
يوضح
يفرك
الارجوحة
الشوكولاتة
باللوح
القذرة
الجانبية
للانضمام
يتسكعون
محطمة
محادثات
وقوفها
مشتعلة
تجرها
المنتجات
بمفرده
مكياجها
وخلفه
مثقوبة
المستنقعات
الراقصين
أظافرها
ألسنتهما
تابعة
حماماً
رومية
رافعة
سبيدو
ساكسفون
قبعتها
متقاطع
هاواي
ولاية
وراكبي
يناور
يهرع
يفقد
الابهام
الياقات
بالرسومات
السلحفاة
الجامعي
الدربزون
متصلة
ويشاهدون
مقطوعة
بيجاما
يطرحان
يسترخيان
سبايدرمان
مواجهة
بمشروب
بقميصه
الإعلانات
صعودًا
امتداد
Red
آسيا
أقطاب
إوزتين
اجت
بلعبته
بشدة
بوسطن
تينكربيل
ثقيلة
جندول
جاكسون
حدوة
دولفين
سوبرمان
غصين
فلوريدا
لولبية
ناعمة
وجلد
ولباس
وهبوطا
يانكي
ياخذون
##شتاين
الالوان
الليمون
مناسبة
الملاهي
الأنهار
بالورود
بالوسادات
يتقاسمان
الصلصال
الطازج
ينتفض
واشنطن
متماسكة
ويجرون
مستعار
أصحابها
يلتصق
اليوغا
الإلكترونية
13
19
آين
آلي
أل
ألب
أري
أيل
ألم
أواني
أمتع
أزهار
أراجيح
أرقام
أونو
أحبك
إج
إي
إح
إثن
إرض
إناء
إعداد
إطلاق
إنز
إلقاء
إصلاح
او
اب
اﻷ
ابتسم
اخرى
افت
اسمنت
امريكية
ابها
انبوب
افريقية
بو
بظ
بُ
بقف
برا
بخص
بفر
برج
بقرب
باه
بأس
بست
بدينة
باح
باق
بنف
بصبي
بومة
بسترة
بتح
بكر
بفتاة
بوذ
بثلاثة
بفحص
بقفازات
بميكروفون
بنادق
بسيوف
تخ
تال
ترا
تمل
تري
تبر
تلون
تفر
تبل
تلال
تقر
تبول
تغط
تاخ
تفس
توت
تظاهر
تارك
توازن
تاري
تلعق
تكس
تلاعب
توقع
تخط
تخييم
تصاعد
تثب
ثع
ثانية
جام
جارية
جوي
جديد
جاك
جنون
حو
حس
حار
حرق
حشي
حنف
حالة
حصى
حواف
حليب
حواجز
حصن
حظيرة
حشود
خائ
خيل
خيام
خارقة
خائفة
دوار
دفت
دلاء
دجاجة
دبابي
درابزون
رأ
رُ
راه
روت
رشة
رقي
رائع
رجبي
ريشة
رسوم
زم
زينة
زياً
زخرفة
زومبي
سمي
سائ
سيل
سرو
سكي
سيات
سوار
ساك
سبار
سلامة
سمين
سواء
سرعة
ساطع
سلاسل
ساحل
سعداء
شق
شف
شها
شارات
شارب
شربة
شقيق
شالات
صعب
صخر
صنع
صائم
صلاة
صدع
ضو
ضما
ضارة
طلب
طيرا
طبول
طاق
طرد
طواف
طراز
طباشير
طعا
ظلال
ظروف
عاد
عاك
عزف
عاز
عمامة
عارض
عرقلة
عفريت
غو
غرو
غوص
غولف
غاض
غلاف
غرين
غنم
غارق
فض
فح
فري
فئة
فوتوغرافية
فراشة
فاخرة
قي
قت
قار
قفل
قلة
قبض
قذف
قائمة
كس
كئ
كرو
كقر
كابل
كاش
كثبان
كعك
كنزة
لاف
لته
لكل
لكي
لمن
لتف
لاطف
لآخر
لفحص
لاند
لارتداء
لصاحب
لجمهور
مي
مذ
مال
مرا
مدم
ممس
موا
مبان
متقط
ملو
مجلات
معبر
مجلة
ميني
مارك
مواز
ميناء
مائلة
موقد
ملاحق
ماراثون
ممهد
مارت
نم
نخ
نش
نائ
نبع
نشرة
نيران
نوبة
نجمة
نهري
نورس
نينجا
نسيج
هر
همر
هام
هدية
هولا
هزل
هيك
هائلة
هرم
وغ
ومر
ومرأة
وول
ومو
ومه
وتان
ومال
وقر
وست
وكاميرا
وكر
وشيء
وماع
وميكروفون
وقفاز
وخرز
وقراءة
يي
يطف
يضم
يناق
يلقون
##وري
##وهم
##وامة
##جير
##جارية
##جوة
##جداف
##جذب
##يث
##يار
##يحة
##يهما
##يدية
##يئة
##يزية
##نى
##نته
##نارد
##ابي
##اها
##ادم
##ايل
##اسي
##اكل
##ازف
##ايدي
##اشة
##امات
##اكيت
##سى
##سفل
##ساد
##عق
##عطف
##علون
##عقة
##عمال
##عاية
##عكس
##عراض
##رت
##رار
##رزة
##تمر
##تبر
##تابة
##تاح
##تاز
##تلس
##دث
##دى
##دغ
##دان
##درة
##دمي
##دلة
##دبة
##دقية
##داتهم
##ًة
##هول
##هاب
##هنة
##هبة
##هضة
##ضل
##ضب
##ضرة
##ضور
##ضنان
##ضوء
##ضائع
##ضراً
##مض
##مث
##مّ
##معة
##مها
##مشي
##مزي
##مشة
##مجمة
##متعة
##لئ
##لؤ
##لعة
##لحة
##لته
##لوية
##لمات
##أن
##حان
##حون
##حابة
##حالي
##حطم
##خير
##خابات
##خنان
##خاذ
##طأ
##طول
##طيل
##طلال
##طوان
##طربة
##بغ
##بكة
##بدون
##بلات
##بائن
##ئات
##ئًا
##قار
##قيرة
##ثة
##ثرة
##ثلة
##ظف
##ظتها
##ظلل
##زا
##زاح
##زارة
##زائن
##كد
##كال
##كاب
##كته
##كاراتيه
##شو
##شن
##شر
##شم
##شاء
##شار
##شَّ
##فاح
##غذ
##غرة
##غاني
##غيتي
##ّي
##ّل
##ُّ
##ّنة
##ّماً
##ذن
##ذير
##ذوب
##ذلك
##ؤون
##ؤولين
##ؤلؤ
##oll
##la
##es
##bull
##bla
##des
##ha
الار
الني
الوح
اليه
الورا
اللات
الهي
الوتر
الراكب
الدمى
القفاز
الضيق
الوقت
##انع
##انه
##انير
##انها
##جلوس
##جليزية
##بيح
##الأ
##الان
##الكة
##المة
##اليت
##التف
منهن
##لبه
يرن
يرضع
يربط
##دير
##ديمي
##ديًا
##ارا
##ارًا
كلبهم
كلبتان
كلباً
المب
المتق
المبتس
المهم
المقب
المعر
المنس
الماك
المتقط
المظهر
المبط
الماس
المكتب
المضم
المملوء
المائدة
المئزر
الممهد
المذهلة
المئات
##مراة
##ونهما
##عبة
##لاع
##لامي
##لائه
##يري
##يرل
##يرين
##مايل
##ماهير
معركة
معارض
معرقلة
معجبون
معالجة
##اتا
##اتب
الأمي
الأحد
الأكل
الأسمنت
الألواح
الأذرع
الأضواء
الأجنحة
الأجانب
الأنثى
الأجهزة
الأذن
##راث
##راوات
##راولة
##ودن
##ودع
##لعبان
##لجات
الكعب
الكلا
الكيس
الكهرب
الكؤوس
الكعك
الكولي
الكفوف
الكتابة
الكهنة
##فلتين
يركلان
##ولون
##ولكا
الشرب
الشقة
الشبح
الشقر
الشكل
الشديدة
الشقرا
الشاطىء
الشراعية
الشبكة
##ربط
بالبي
بالات
بالخر
بالبر
بالقر
بالكلب
بالاح
بالبض
بالنظارات
بالسيارات
بالجم
بالبخ
بالتح
بالجليد
بالنباتات
بالزانة
بالآلات
بالطيور
بالحركات
بالايدي
بالضوء
بالالتف
يتبا
يتواج
يتصور
يتفحص
يتلوى
يتصاعد
يتطاير
##نائ
##ناصر
##نائية
##ملان
##ميمة
##ريش
##ريين
##رقل
##ابر
طفله
طفليها
العض
العاص
العراء
العيون
العصور
العارض
العصير
العفريت
العرقية
العرائس
العشاء
##نيات
يحتس
يحوم
يحضر
يحارب
يحتف
يحرك
يحصلون
يحدث
##مورة
##موسة
##مودين
السجل
السمر
السرج
الساح
السجلات
السهرة
الساقطة
السحالي
يسعون
شخصاً
شخصيات
أبيضا
أبيضين
الروم
الروك
الرحلة
الرواق
الرذاذ
الرومي
الرمث
الركاب
الصين
الصقر
الصلع
الصنع
الصالة
الصيني
الصراف
الصناعية
الصعبة
##هاوش
##هاجمة
##هائي
الباص
البطة
البنادق
البولكا
أسودا
التح
التأرجح
التوت
التلو
التوقف
التمويه
التمساح
التوليب
التجارية
التفاح
النادل
النادلة
تربي
ترشد
تروي
ترحل
##شبكة
الطير
الطوف
الطاولات
الطائفة
مجال
مجدل
مجوهرات
مجاور
اثنتان
الثلاجة
القت
القلم
القوية
القريب
القرع
القلادة
القائمة
القليل
القزم
##ورد
##ورية
##وردية
ينت
ينخر
ينحدر
ينزه
ينثر
ينتقل
ينبوع
##برغر
الخف
الخبز
الخليج
الخلوية
بنيا
بنيتان
يمدون
يمضي
يمثلون
يقلع
يقمن
يقدمون
يقطر
يركبها
##رجع
والت
والأس
والفت
والصبي
والبط
واللاعب
والقبعات
والدها
والقفازات
والذهاب
والسيوف
والرجال
والبالغين
##ارعين
الجميل
الجمجمة
الجماهير
الحب
الحرف
الحارس
الحروف
الحجلة
الحصيرة
الحجري
الحكام
الحملان
##افز
بجهد
بجهاز
بجولة
واقي
##امق
##امود
برية
برفع
برأس
برسومات
الدب
الدول
الدعم
الدلاء
الداخلي
ترتدين
ترتديها
تحك
تحول
تحذير
##ضروات
وأخرى
وأشياء
وأقرا
وأوشحة
وأنثى
وأقدام
##تقيم
##تقيان
##تقاتلان
الفن
الفري
الفرق
الفوا
الفضي
الفضية
الفضة
الفصل
الفندق
##وجة
النمر
النحت
النصر
النهاية
النقود
النحل
النسيج
النهائي
##شيلو
##مسان
##اجران
متما
متأرجح
متمسك
متدحرج
متزام
متوازن
متناث
متناثر
متدلية
##مهما
##يلو
##يلي
ويتص
ويتع
ويؤدي
ويصل
ويديها
ويتسلق
ويقود
ويتقاتلان
مسيرة
مسافة
مسلم
مسنان
مسطحة
مستقيم
##كبار
للع
للز
للهو
للماء
للالتقاط
للدراجة
للشرب
للطق
للكاراتيه
كبيرين
##اصرين
ورسومات
أسلاك
أسودين
أسطوان
لاعبون
لاعبات
مقا
مقصور
تسرع
تسخن
تسلية
تسطع
تسبب
تستقل
تسليم
تسخير
##سيكية
سياحية
بيت
يتسباق
##اراته
##ليمي
المتنافس
المتدحرج
المتجم
المتوقفة
المتناثر
المتدفقة
يشعر
يشرف
يشوي
يشكلون
يشتري
##روع
يطعم
الزبائن
الغر
الغط
الغريبة
الغنم
الغطاء
الغسيل
الغامق
رايات
راعية
المحل
المحفو
المحشوة
##بحار
##بحيرة
السباغيتي
أطفالها
تنبع
تندفع
تنظيف
تنورات
تنكري
تنجذب
تنعكس
تنانير
كلابهما
##حدرات
يدق
يدرد
تجلسن
ذوو
##صاد
##صابيح
تتأ
تتنزه
تترك
تتفحص
تتابع
تتموضع
تتلاكمان
تتدفق
تتمرن
تتجاهل
تتحطم
خارجيًا
##رفص
##رفين
##رفيه
##مالات
عنوان
بحر
بحث
بحرية
دراجتين
دراجتهما
والأخرى
والأوراق
والأوساخ
والأغطية
والأعلام
والأزهار
والأعشاب
يجذب
يجدان
##سكي
##ستر
وجهاز
وجاكيت
يصد
يصتاد
##ويت
##ويات
##واع
##واخ
##واسي
بعص
بعرض
بعلم
بعنف
بعظمة
بعناية
بعامود
##ولاً
شابًا
يتزلجن
مقعده
الجليدية
رأسهما
جداراً
الأرضيات
تمضغ
طريقًا
وتضع
وتنت
وتلبس
وتشير
وتتسلق
وتبدو
وتغني
وتمشي
وتأن
الخارجية
شعرهما
محب
محلي
محرك
محصور
وشاب
وشلال
يعط
يعرقل
وقع
وقود
وقمصان
وقلادة
##فساتين
وكلبًا
المرح
المرصوف
مشاة
مشعر
مشرد
مشجعة
مشذبة
##احنة
أنها
أنهما
ذاتية
مرعب
مرتب
مرتا
مرئية
مرسومة
مرتفعة
الآلة
الآلي
بخيط
بخاتم
مسارًا
##معين
متزلجي
متزلجون
هواء
##سمتان
صخرياً
تقديمي
##يتها
متسخة
##وسائد
##عبيرات
##اقبة
بجوارها
##جارف
يراقبها
قاربهم
مزخرفة
موشم
وسقط
وسلسلة
للقيام
للقرون
الصغيرتان
بأزهار
زوجته
وبج
وبجانب
وببغ
حيتان
تجرف
تجميل
تجديف
تتسكع
المنتصف
المنضدة
المنعطف
ذراعهما
كرنك
##جرى
بدورة
بداخل
اللؤلؤ
بمظ
بمنط
بمعدات
بمجداف
عقبات
مكسيكي
مكالمة
مخيف
مخيفة
مخفي
مختبر
مخلبه
يرقدون
شاطئية
الأرجوانية
بهدو
عالم
مصرف
مصنوعة
##فتش
تلهو
تلسكوب
تعلم
تعكس
طائرات
طويلان
##يتاره
المسن
المسيرة
المسنة
المسارات
المسربة
المسابقة
المسابقات
مطبوع
مطرزة
مظاهرة
##وتة
##وتار
يتجاه
يتجاوز
يلصق
يلهث
##ندر
##ندل
بشلال
بشرائط
بشاحنة
كتابة
كتيب
كتابي
اليقطين
الاوز
الايدي
بقية
بقارب
بقلم
بقناع
بقوة
بقماش
بقضبان
بقليل
بقدمي
##عمار
وحل
وحول
وحلق
وحبل
وحقائب
وحاجبين
تدرس
تدافع
تداعب
حبلين
يهمس
##ريرية
سيبي
سيوف
تطلب
##دوير
تشق
جرفاً
الإصبع
الإبها
الإيماءات
الإبادة
الإسمنتي
كلتا
نظام
##ظهره
متسابقو
متسابقين
سائقا
يبقي
يبصق
##بعه
الهندي
الهندية
الهنود
الهالوين
الهراوات
المطل
السياح
تصور
تصارع
تصدر
تصريف
وطفلها
حجم
بالغة
قفزات
فريقين
بطن
بطائرة
بطاطس
بطريقة
بطاطا
ليمسك
ليأخذ
ليجلب
ليصنع
يغمر
يغنين
يغذي
يرشق
يرشّ
بالأحمر
بالأشياء
بالأعشاب
الرياح
##سانه
##لومات
بنزهة
##نبق
##نانه
أكثر
أكورديون
متسلقين
المشرق
المشروب
المشجعة
المشاركة
يخرجون
يفعله
منزلهم
قصيرا
يعضه
يعضّان
##اعي
تستريح
تسترد
عرضا
التلسكوب
للحشود
خطاب
خطوة
خيوط
خيولاً
مدافع
مدبب
مدببة
مستاء
مستودع
القفزات
حاجزًا
شاحنات
الأسد
الأسرة
الأساسية
ساقيها
مسنات
مسنبل
محاطا
محاطين
عائلية
عائلته
يخلق
يخدم
يخلع
يخدش
يختلس
ينفد
ينفجر
حافلتين
حاويات
ومت
ومد
ومق
ومهر
ومتعد
ومقود
ومجموعة
المقابل
المقهى
المقابض
المقاهي
##رعان
المعلم
المعشبة
المعلومات
يتجولان
مفتوحًا
ملمع
ملهى
ملثم
##فرجون
يدفعه
يشاهدونه
بسلم
بسيارة
بسبب
بسحابة
ممتل
ممطرة
هاتفًا
مضمدة
وعلى
وعربة
وعيون
وعازف
##وشك
##وشاح
ويرش
ويرمي
ويرشون
ويرقص
التقبيل
التقليدي
التقليدية
جلد
جلدياً
حفاضة
درجتين
وخوذات
وخمسة
وخليج
يسحبه
إليهما
صندل
ورقيًا
ورقيقة
يتبعان
تمثالين
##تبورد
##خدمون
يشيرون
صندوقا
صندوقه
يؤدين
بلغة
وله
ولكن
ولسانه
رياضيين
كانا
للأشخاص
تغلق
تغرق
تغمس
تغذي
حذاءه
حذاءها
بالملابس
بالمدينة
بالمصور
بالمزمار
تجريان
أجلها
إطارًا
طوفان
طوفهم
المصنوع
لصنع
##تحي
بالحمام
بالحبل
الفريقين
ويبتسمن
مشمسة
المتسوق
المتسخين
يتزحلقون
##ابلين
يقاتالان
ويتحدثن
ويتبعه
أنبوبًا
شتاء
الانطلاق
السيجار
السيوف
موكبًا
انتشار
قرصا
قرميد
يظهرون
الضغط
الضفة
المراهقات
اشارة
حائطًا
عدواني
مصارعان
باي
بامرأة
باقة
دلوًا
لتلقي
القرن
القرون
اللاعبون
رقص
رقصة
تحاولان
قطارًا
مغني
مغبر
مغنية
مغمورة
البطريق
البطولة
لمبنى
لمحاولة
لمهاجمة
مربعة
مربعات
##حتجاج
ترميه
جالساتان
سحبهما
للتو
للتنس
للتحدث
مقوده
يدخنون
الأسفلت
رسمت
سكك
سكوبا
صيدلية
لأحد
لأمريكا
ميكروفونًا
وبنطال
ومعاطف
##وكولاتة
##نشطة
منقاره
وتنزلق
عصي
عصري
السكوتر
السكوبا
يمضغان
ويقفان
ويمسكان
ويمسكون
للمبنى
للملاكمة
##رافه
بدراجاتهم
ينفضان
عضو
عضلات
يكسر
##زونا
المزيف
المزمار
الموجود
الأقواس
الأقنعة
مظللة
مظلته
##صطياد
ترفعان
وشورتاً
الاستعداد
الاستماع
الاستلقاء
الاستوديو
أمها
لحاف
لحضور
ويدور
يشاركن
مكتبي
مكتمل
مكتبة
كتفها
ملتحان
إعجاب
رؤية
قادمة
قادمون
##دره
الهائ
الفروع
بالتزحلق
بالتمارين
مقلمة
تقودان
بتناول
بتجديف
بتنظيف
حادا
غيتاره
ليلحق
ناريتين
المجموعة
المجاذ
بالعلم
بالعناصر
بالطعام
بالطباشير
محمولة
أجش
تعبران
كشف
نائمًا
يحلقون
البقع
تدفعه
ولدًا
دافئ
غامضة
لونها
لمساعدة
##كسرة
الأمتعة
الأميركي
##رائح
ينبحان
يقتربان
يقتربون
والملابس
والمباني
والمشاة
والمحيط
أسنانهما
وشخصان
يحتضنون
بصح
بصبر
بصناديق
بصاروخ
بصدره
يهرولون
الأحرف
الأحجام
بالكمان
بالكامل
ضخمًا
أختها
أخوه
أخريات
أخضراً
اصطاد
اصطناعي
دبًا
ظهورهن
لسباق
لسماع
لكلبها
يلفون
يبحرون
الخرطوم
الواقي
الأمريكيون
يتشاجران
يمتثلان
سياراة
وعاءًا
جنباً
ببعضهم
خفاش
ضوءًا
مؤتمر
منتج
بالصخور
الفقاعة
ويسبح
يطاردانه
وتنظران
مخروطية
جريانه
لعرض
لعصا
لدفع
لإظهار
وابنه
وابتسامة
الملاكم
والبنات
ويضعان
ينفخون
بكومة
باراك
دخانًا
كثيب
وآخرون
البدلاء
متعلق
ويستمع
ويستخدمون
انزلق
بفم
جزيرة
كلابين
ويلوح
##تلط
##فريقي
بالسلسلة
بالسياج
بالسباحة
بالرغ
تتمتعان
يجرفان
يصارعون
المصورين
أحضان
أحجام
أغمق
بقطع
بقطب
ثورًا
جواره
خصره
صديقهم
مموه
نقالة
والقبعة
الفستان
السباحون
يصرخون
محترق
مزيفين
المشجعون
تستلقيان
يحتفلون
جميعهم
أدواتهم
جسمه
فناني
لوضع
وطائرة
ووشم
الرابض
الماضي
بالقوارب
بالفيديو
بالفراولة
يتكلمون
التعليمي
القديس
القديم
بيجامة
الزلاجة
راسه
خيولًا
الرياضيين
موسيقيين
سكوتره
ببطء
تُأرجح
جناحيه
خدعه
رفوف
رفيع
ركبة
رسمياً
سيرهم
سيفاً
للجبال
وزجاج
##نزول
المبارز
المبارزين
ترتاح
ترتكز
مجدافه
مجدافًا
والحشد
وأسمر
وأساور
ويمشون
ويضحكون
يشقون
وتضحكان
محفظتها
مطاطي
مطاطيًا
بذراعيه
يحتويان
جزئياً
كاميرتها
إسمنتية
عشر
عارٍ
عاريات
قنينة
لجبل
لجسم
للبحيرة
للبحث
للاحتجاج
مماثلة
متقابلين
وصندل
##اضات
الأرانب
يتهيئن
العامود
التوالي
التواليت
التدخين
التدليك
والرمادية
متجعد
متجهة
متجولون
للسيارة
للسباحة
للصوت
يتسوقان
يستردان
سباحين
وتعطي
قفازته
الاسماك
يبتعدون
حديثا
مربوطان
احتجاجية
أطرافه
أوروبي
أوروبية
بغزارة
بغيتاره
بانحناء
تهز
تهبط
يفحصون
##نقاض
الوعر
الوثب
الوالد
فيلًا
مناظر
الملصقات
الملتحي
المظلي
المظليين
المظلمة
بالدلو
يتفاعلان
يتطلعون
العملاق
العملاقة
العمالقة
يسدد
يسددون
يسابقان
الرحالة
والطبل
الحشود
ويعزف
ويعانقان
ويشربان
ويصنعون
راقصات
يرتاحون
وتقفان
ماكينة
مزهرًا
مزمارا
مختلفين
تعليقه
يتجهان
تصنعان
حجابا
ملطخة
إلكترونيًا
ارجوانية
ابنها
ابنتها
برياضة
تعبيرات
زبدية
سلالات
ضاحك
طائراً
عريضة
لبعضهم
لبعضهما
ميدانية
مدفون
مدفأة
مدفونة
مملوءة
يفجر
##وّد
##وّح
##حقق
##بتة
المقلية
المقلوبة
يتكئان
يتكئون
البوابات
حقيبتها
ويهمس
ويهبط
ويهتف
ويصرخون
مرحاض
أصابعه
مستنقعات
يخطئ
عملاقين
ملصقًا
ملصقاً
يتعلمون
مرتبطًا
الخرساني
المكانس
ويستعدون
لوحده
تُقلع
حذائه
أردية
أرجلهم
إطاراتها
بملعقة
جيدًا
خرافيًا
دفن
دفنت
رغوي
قبو
قدحا
كاياك
كفوف
كهرباء
لاتخاذ
مبطنة
نزولا
هادئ
يفرز
##دايا
##متلكات
العبور
الرباط
الرباعي
المثيرة
المثلجات
معصم
معصوب
الشوكولاته
بالإطارات
بالإبادة
يتصرف
يتصفح
الصوتي
القذر
والنمر
والدته
متفاج
للإبحار
للانزلاق
تنفض
محادثة
المرشات
مشتعل
بأصابعها
بمفردها
مصابًا
يهتفون
المطاطية
وينتظرون
مستلقيتان
ومكان
ومكياج
وعيناه
ويرفعون
الانتظار
الانتخابات
مثقوب
المهرجان
المهرجين
أنابيب
إبهامه
بضائع
بثلاث
ببندقية
جمجمة
جبلا
خصوم
خصمه
خياطة
خيامهم
دمبل
رصاصة
رائعة
رائحة
سخيف
سخيفة
طباخ
طباعة
عربي
عربية
عمومي
لامع
لامعة
لقطات
ناطحة
ناطحات
هبوطه
وملونة
يضغط
يضبط
يُرش
يملك
يكتظ
يفحط
يفحصان
يطفئون
اليدوية
الولادة
الولايات
الاحتف
المرقطة
الموتور
باليقطين
باليجوس
بالمنظر
بالمنحدرات
يتناوب
يتنزهون
التشغيل
ينساب
والصنادل
والديك
الجذع
الجذوع
برشاش
النزول
النزوات
متهدم
متهالكة
للهاتف
للتحقيق
الغزلان
المحترفين
يستكشفون
تمتثلان
المرتفع
مشغول
مشغولة
المنقطة
بمقعد
مستعدة
المعجبين
المعجنات
يحتجون
يحتجزه
تمرينات
لأنفسهما
يكونان
انتهى
ويلتقطون
فنجانًا
فاخرًا
يرافقه
BMX
اعجاب
انقلب
برباط
بسكين
بتصوير
برقصة
تذكاري
تختار
ثقيل
ثديين
جاثم
حاجيات
رسالة
زخرفية
سفاري
صقرًا
طبقة
عوائق
لفريقه
مراقبة
نفاثة
نادٍ
ودلو
وكبير
ومنديل
ووجهه
يعبث
##erbla
الدينية
الامطار
منتفخة
منفوخة
المعبد
المراحيض
المزهّ
معسكر
معالجته
الأليفة
الشرطي
الشاهق
الشيطان
بالموجات
يتبارزون
##نافسي
يحييان
يحرقون
الصدئة
البهلوان
البانجي
البريطاني
مجموعتان
مجذافًا
ينغمس
يمنعه
والذهبي
حقيقي
الحماية
بجناحيه
تحطمها
الفانيلا
الفارغة
مترسمتان
متزلّج
متوازية
متشابهة
متهيئاً
ويعضان
ويأخذون
ويبحثان
تنكرية
يستحوذ
تتصفح
يجربون
وجوهاً
وتدخن
مشجعي
أرجوانياً
موضوعة
بأنهما
بمناورات
مخفضة
مصفاة
مطاردا
أصفراً
تشكلان
الإنطلاق
متنكرين
ومشهد
ملتهب
ممتدة
لصديقه
الكركيه
وكلابه
الهامبرغر
والمجوهرات
بمسحوق
ويطارده
لبدء
Redbull
اجتماع
آينشتاين
ألبوم
أريزونا
أمتعتهم
إحراز
إثنان
إرضاع
إنزال
اسمنتية
بوضع
بظلال
بُني
بخصمه
بستة
باقتها
بنادقهم
تالفة
تملأ
تغطيها
تفسخ
توتو
تاريخي
تخطو
ثعلب
جنوني
حنفية
خائف
دفتر
دبابيس
رُشَّ
راهب
رقيقة
زملائه
سكيتبورد
سياتل
ساكنة
سبارو
شفافة
صخرتين
ضماد
طعاماً
عادلة
عاكسة
عازمة
غواص
غاضب
فحص
قبضة
كئيب
كقرصان
كاشف
لافندر
لاطفاء
لصاحبها
ميتس
مالكه
مواقف
متقطعة
ملوّنة
ماركس
موازنة
ملاحقته
نمط
نخب
نائما
هرمي
هامش
ومالكه
وسترات
وكرسي
وماعز
يطفون
##غذى
##ollerbla
النيون
الوحيد
الوراثية
اللاتي
الوترية
المهملات
المعركة
الماكياج
المتقطع
الماسات
المضمنة
الأميرة
الأحداث
الكهرباء
الشقراوات
بالقرص
بالبضائع
بالجمباز
بالبخار
بالالتفاف
يتواجد
العاصمة
العارضات
يحتسي
يحتفظ
الساحر
التلوين
والبطانيات
وأقراط
الفواكه
متزامنة
متناثرة
للطقس
أسطوانة
مقصورتين
يتسباقان
المتدحرجين
المتجمد
تنبعث
مرتادي
تقديميًا
وببغاء
بهدوء
الإبهام
ومتعددة
ممتلئ
بالمصورين
المجاذيف
##ollerblades
##qwjkeqwe
#qwejqwe